#ifndef __AI_MODEL_DATA_H__
#define __AI_MODEL_DATA_H__

alignas(16) const unsigned char ai_model[] = {
   0x20, 0x00, 0x00, 0x00, 0x54, 0x46, 0x4c, 0x33, 0x00, 0x00, 0x00, 0x00,
   0x14, 0x00, 0x20, 0x00, 0x1c, 0x00, 0x18, 0x00, 0x14, 0x00, 0x10, 0x00,
   0x0c, 0x00, 0x00, 0x00, 0x08, 0x00, 0x04, 0x00, 0x14, 0x00, 0x00, 0x00,
   0x1c, 0x00, 0x00, 0x00, 0x84, 0x00, 0x00, 0x00, 0xdc, 0x00, 0x00, 0x00,
   0x5c, 0x3a, 0x00, 0x00, 0x6c, 0x3a, 0x00, 0x00, 0xac, 0xa7, 0x00, 0x00,
   0x03, 0x00, 0x00, 0x00, 0x01, 0x00, 0x00, 0x00, 0x04, 0x00, 0x00, 0x00,
   0x66, 0xb4, 0xff, 0xff, 0x0c, 0x00, 0x00, 0x00, 0x1c, 0x00, 0x00, 0x00,
   0x34, 0x00, 0x00, 0x00, 0x0f, 0x00, 0x00, 0x00, 0x73, 0x65, 0x72, 0x76,
   0x69, 0x6e, 0x67, 0x5f, 0x64, 0x65, 0x66, 0x61, 0x75, 0x6c, 0x74, 0x00,
   0x01, 0x00, 0x00, 0x00, 0x04, 0x00, 0x00, 0x00, 0x98, 0xff, 0xff, 0xff,
   0x8f, 0x00, 0x00, 0x00, 0x04, 0x00, 0x00, 0x00, 0x03, 0x00, 0x00, 0x00,
   0x31, 0x31, 0x35, 0x00, 0x01, 0x00, 0x00, 0x00, 0x04, 0x00, 0x00, 0x00,
   0x4e, 0xb5, 0xff, 0xff, 0x04, 0x00, 0x00, 0x00, 0x0f, 0x00, 0x00, 0x00,
   0x6f, 0x6e, 0x6e, 0x78, 0x5f, 0x5f, 0x52, 0x65, 0x73, 0x68, 0x61, 0x70,
   0x65, 0x5f, 0x30, 0x00, 0x02, 0x00, 0x00, 0x00, 0x34, 0x00, 0x00, 0x00,
   0x04, 0x00, 0x00, 0x00, 0xdc, 0xff, 0xff, 0xff, 0x92, 0x00, 0x00, 0x00,
   0x04, 0x00, 0x00, 0x00, 0x13, 0x00, 0x00, 0x00, 0x43, 0x4f, 0x4e, 0x56,
   0x45, 0x52, 0x53, 0x49, 0x4f, 0x4e, 0x5f, 0x4d, 0x45, 0x54, 0x41, 0x44,
   0x41, 0x54, 0x41, 0x00, 0x08, 0x00, 0x0c, 0x00, 0x08, 0x00, 0x04, 0x00,
   0x08, 0x00, 0x00, 0x00, 0x91, 0x00, 0x00, 0x00, 0x04, 0x00, 0x00, 0x00,
   0x13, 0x00, 0x00, 0x00, 0x6d, 0x69, 0x6e, 0x5f, 0x72, 0x75, 0x6e, 0x74,
   0x69, 0x6d, 0x65, 0x5f, 0x76, 0x65, 0x72, 0x73, 0x69, 0x6f, 0x6e, 0x00,
   0x93, 0x00, 0x00, 0x00, 0x7c, 0x39, 0x00, 0x00, 0x74, 0x39, 0x00, 0x00,
   0x54, 0x39, 0x00, 0x00, 0x34, 0x39, 0x00, 0x00, 0x14, 0x39, 0x00, 0x00,
   0xf4, 0x38, 0x00, 0x00, 0xd4, 0x38, 0x00, 0x00, 0xb4, 0x38, 0x00, 0x00,
   0x94, 0x38, 0x00, 0x00, 0x74, 0x38, 0x00, 0x00, 0x5c, 0x38, 0x00, 0x00,
   0x0c, 0x38, 0x00, 0x00, 0xfc, 0x36, 0x00, 0x00, 0xac, 0x36, 0x00, 0x00,
   0x9c, 0x34, 0x00, 0x00, 0x0c, 0x34, 0x00, 0x00, 0xfc, 0x32, 0x00, 0x00,
   0xcc, 0x32, 0x00, 0x00, 0x3c, 0x32, 0x00, 0x00, 0xec, 0x31, 0x00, 0x00,
   0xdc, 0x2f, 0x00, 0x00, 0x4c, 0x2f, 0x00, 0x00, 0x3c, 0x2d, 0x00, 0x00,
   0xec, 0x2c, 0x00, 0x00, 0xdc, 0x29, 0x00, 0x00, 0xac, 0x29, 0x00, 0x00,
   0x1c, 0x29, 0x00, 0x00, 0xcc, 0x28, 0x00, 0x00, 0xbc, 0x26, 0x00, 0x00,
   0x2c, 0x26, 0x00, 0x00, 0x1c, 0x24, 0x00, 0x00, 0xcc, 0x23, 0x00, 0x00,
   0x3c, 0x1f, 0x00, 0x00, 0x0c, 0x1f, 0x00, 0x00, 0x7c, 0x1e, 0x00, 0x00,
   0x2c, 0x1e, 0x00, 0x00, 0x1c, 0x1c, 0x00, 0x00, 0x8c, 0x1b, 0x00, 0x00,
   0x7c, 0x19, 0x00, 0x00, 0x2c, 0x19, 0x00, 0x00, 0x9c, 0x14, 0x00, 0x00,
   0x6c, 0x14, 0x00, 0x00, 0xdc, 0x13, 0x00, 0x00, 0x8c, 0x13, 0x00, 0x00,
   0x7c, 0x11, 0x00, 0x00, 0xec, 0x10, 0x00, 0x00, 0xdc, 0x0e, 0x00, 0x00,
   0x8c, 0x0e, 0x00, 0x00, 0xfc, 0x09, 0x00, 0x00, 0xcc, 0x09, 0x00, 0x00,
   0x3c, 0x09, 0x00, 0x00, 0xec, 0x08, 0x00, 0x00, 0xdc, 0x06, 0x00, 0x00,
   0x4c, 0x06, 0x00, 0x00, 0x3c, 0x04, 0x00, 0x00, 0xec, 0x03, 0x00, 0x00,
   0x4c, 0x03, 0x00, 0x00, 0x44, 0x03, 0x00, 0x00, 0x3c, 0x03, 0x00, 0x00,
   0x34, 0x03, 0x00, 0x00, 0x2c, 0x03, 0x00, 0x00, 0x24, 0x03, 0x00, 0x00,
   0x1c, 0x03, 0x00, 0x00, 0x14, 0x03, 0x00, 0x00, 0x0c, 0x03, 0x00, 0x00,
   0x04, 0x03, 0x00, 0x00, 0xfc, 0x02, 0x00, 0x00, 0xf4, 0x02, 0x00, 0x00,
   0xec, 0x02, 0x00, 0x00, 0xe4, 0x02, 0x00, 0x00, 0xdc, 0x02, 0x00, 0x00,
   0xd4, 0x02, 0x00, 0x00, 0xcc, 0x02, 0x00, 0x00, 0xc4, 0x02, 0x00, 0x00,
   0xbc, 0x02, 0x00, 0x00, 0xb4, 0x02, 0x00, 0x00, 0xac, 0x02, 0x00, 0x00,
   0xa4, 0x02, 0x00, 0x00, 0x9c, 0x02, 0x00, 0x00, 0x94, 0x02, 0x00, 0x00,
   0x8c, 0x02, 0x00, 0x00, 0x84, 0x02, 0x00, 0x00, 0x7c, 0x02, 0x00, 0x00,
   0x74, 0x02, 0x00, 0x00, 0x6c, 0x02, 0x00, 0x00, 0x64, 0x02, 0x00, 0x00,
   0x5c, 0x02, 0x00, 0x00, 0x54, 0x02, 0x00, 0x00, 0x4c, 0x02, 0x00, 0x00,
   0x44, 0x02, 0x00, 0x00, 0x3c, 0x02, 0x00, 0x00, 0x34, 0x02, 0x00, 0x00,
   0x2c, 0x02, 0x00, 0x00, 0x24, 0x02, 0x00, 0x00, 0x1c, 0x02, 0x00, 0x00,
   0x14, 0x02, 0x00, 0x00, 0x0c, 0x02, 0x00, 0x00, 0x04, 0x02, 0x00, 0x00,
   0xfc, 0x01, 0x00, 0x00, 0xf4, 0x01, 0x00, 0x00, 0xec, 0x01, 0x00, 0x00,
   0xe4, 0x01, 0x00, 0x00, 0xdc, 0x01, 0x00, 0x00, 0xd4, 0x01, 0x00, 0x00,
   0xcc, 0x01, 0x00, 0x00, 0xc4, 0x01, 0x00, 0x00, 0xbc, 0x01, 0x00, 0x00,
   0xb4, 0x01, 0x00, 0x00, 0xac, 0x01, 0x00, 0x00, 0xa4, 0x01, 0x00, 0x00,
   0x9c, 0x01, 0x00, 0x00, 0x94, 0x01, 0x00, 0x00, 0x8c, 0x01, 0x00, 0x00,
   0x84, 0x01, 0x00, 0x00, 0x7c, 0x01, 0x00, 0x00, 0x74, 0x01, 0x00, 0x00,
   0x6c, 0x01, 0x00, 0x00, 0x64, 0x01, 0x00, 0x00, 0x5c, 0x01, 0x00, 0x00,
   0x54, 0x01, 0x00, 0x00, 0x4c, 0x01, 0x00, 0x00, 0x44, 0x01, 0x00, 0x00,
   0x3c, 0x01, 0x00, 0x00, 0x34, 0x01, 0x00, 0x00, 0x2c, 0x01, 0x00, 0x00,
   0x24, 0x01, 0x00, 0x00, 0x1c, 0x01, 0x00, 0x00, 0x14, 0x01, 0x00, 0x00,
   0x0c, 0x01, 0x00, 0x00, 0x04, 0x01, 0x00, 0x00, 0xfc, 0x00, 0x00, 0x00,
   0xf4, 0x00, 0x00, 0x00, 0xec, 0x00, 0x00, 0x00, 0xe4, 0x00, 0x00, 0x00,
   0xdc, 0x00, 0x00, 0x00, 0xd4, 0x00, 0x00, 0x00, 0xcc, 0x00, 0x00, 0x00,
   0xc4, 0x00, 0x00, 0x00, 0xbc, 0x00, 0x00, 0x00, 0xb4, 0x00, 0x00, 0x00,
   0xac, 0x00, 0x00, 0x00, 0xa4, 0x00, 0x00, 0x00, 0x9c, 0x00, 0x00, 0x00,
   0x94, 0x00, 0x00, 0x00, 0x8c, 0x00, 0x00, 0x00, 0x6c, 0x00, 0x00, 0x00,
   0x04, 0x00, 0x00, 0x00, 0x16, 0xb8, 0xff, 0xff, 0x04, 0x00, 0x00, 0x00,
   0x58, 0x00, 0x00, 0x00, 0x0c, 0x00, 0x00, 0x00, 0x08, 0x00, 0x0e, 0x00,
   0x08, 0x00, 0x04, 0x00, 0x08, 0x00, 0x00, 0x00, 0x10, 0x00, 0x00, 0x00,
   0x28, 0x00, 0x00, 0x00, 0x00, 0x00, 0x06, 0x00, 0x08, 0x00, 0x04, 0x00,
   0x06, 0x00, 0x00, 0x00, 0x04, 0x00, 0x00, 0x00, 0x01, 0x00, 0x00, 0x00,
   0xeb, 0x03, 0x00, 0x00, 0x00, 0x00, 0x0a, 0x00, 0x10, 0x00, 0x0c, 0x00,
   0x08, 0x00, 0x04, 0x00, 0x0a, 0x00, 0x00, 0x00, 0x01, 0x00, 0x00, 0x00,
   0x02, 0x00, 0x00, 0x00, 0x04, 0x00, 0x00, 0x00, 0x06, 0x00, 0x00, 0x00,
   0x32, 0x2e, 0x31, 0x35, 0x2e, 0x31, 0x00, 0x00, 0x7a, 0xb8, 0xff, 0xff,
   0x04, 0x00, 0x00, 0x00, 0x10, 0x00, 0x00, 0x00, 0x31, 0x2e, 0x31, 0x34,
   0x2e, 0x30, 0x00, 0x00, 0x00, 0x00, 0x00, 0x00, 0x00, 0x00, 0x00, 0x00,
   0x34, 0x5c, 0xff, 0xff, 0x38, 0x5c, 0xff, 0xff, 0x3c, 0x5c, 0xff, 0xff,
   0x40, 0x5c, 0xff, 0xff, 0x44, 0x5c, 0xff, 0xff, 0x48, 0x5c, 0xff, 0xff,
   0x4c, 0x5c, 0xff, 0xff, 0x50, 0x5c, 0xff, 0xff, 0x54, 0x5c, 0xff, 0xff,
   0x58, 0x5c, 0xff, 0xff, 0x5c, 0x5c, 0xff, 0xff, 0x60, 0x5c, 0xff, 0xff,
   0x64, 0x5c, 0xff, 0xff, 0x68, 0x5c, 0xff, 0xff, 0x6c, 0x5c, 0xff, 0xff,
   0x70, 0x5c, 0xff, 0xff, 0x74, 0x5c, 0xff, 0xff, 0x78, 0x5c, 0xff, 0xff,
   0x7c, 0x5c, 0xff, 0xff, 0x80, 0x5c, 0xff, 0xff, 0x84, 0x5c, 0xff, 0xff,
   0x88, 0x5c, 0xff, 0xff, 0x8c, 0x5c, 0xff, 0xff, 0x90, 0x5c, 0xff, 0xff,
   0x94, 0x5c, 0xff, 0xff, 0x98, 0x5c, 0xff, 0xff, 0x9c, 0x5c, 0xff, 0xff,
   0xa0, 0x5c, 0xff, 0xff, 0xa4, 0x5c, 0xff, 0xff, 0xa8, 0x5c, 0xff, 0xff,
   0xac, 0x5c, 0xff, 0xff, 0xb0, 0x5c, 0xff, 0xff, 0xb4, 0x5c, 0xff, 0xff,
   0xb8, 0x5c, 0xff, 0xff, 0xbc, 0x5c, 0xff, 0xff, 0xc0, 0x5c, 0xff, 0xff,
   0xc4, 0x5c, 0xff, 0xff, 0xc8, 0x5c, 0xff, 0xff, 0xcc, 0x5c, 0xff, 0xff,
   0xd0, 0x5c, 0xff, 0xff, 0xd4, 0x5c, 0xff, 0xff, 0xd8, 0x5c, 0xff, 0xff,
   0xdc, 0x5c, 0xff, 0xff, 0xe0, 0x5c, 0xff, 0xff, 0xe4, 0x5c, 0xff, 0xff,
   0xe8, 0x5c, 0xff, 0xff, 0xec, 0x5c, 0xff, 0xff, 0xf0, 0x5c, 0xff, 0xff,
   0xf4, 0x5c, 0xff, 0xff, 0xf8, 0x5c, 0xff, 0xff, 0xfc, 0x5c, 0xff, 0xff,
   0x00, 0x5d, 0xff, 0xff, 0x04, 0x5d, 0xff, 0xff, 0x08, 0x5d, 0xff, 0xff,
   0x0c, 0x5d, 0xff, 0xff, 0x10, 0x5d, 0xff, 0xff, 0x14, 0x5d, 0xff, 0xff,
   0x18, 0x5d, 0xff, 0xff, 0x1c, 0x5d, 0xff, 0xff, 0x20, 0x5d, 0xff, 0xff,
   0x24, 0x5d, 0xff, 0xff, 0x28, 0x5d, 0xff, 0xff, 0x2c, 0x5d, 0xff, 0xff,
   0x30, 0x5d, 0xff, 0xff, 0x34, 0x5d, 0xff, 0xff, 0x38, 0x5d, 0xff, 0xff,
   0x3c, 0x5d, 0xff, 0xff, 0x40, 0x5d, 0xff, 0xff, 0x44, 0x5d, 0xff, 0xff,
   0x48, 0x5d, 0xff, 0xff, 0x4c, 0x5d, 0xff, 0xff, 0x50, 0x5d, 0xff, 0xff,
   0x54, 0x5d, 0xff, 0xff, 0x58, 0x5d, 0xff, 0xff, 0x5c, 0x5d, 0xff, 0xff,
   0x60, 0x5d, 0xff, 0xff, 0x64, 0x5d, 0xff, 0xff, 0x68, 0x5d, 0xff, 0xff,
   0x6c, 0x5d, 0xff, 0xff, 0x70, 0x5d, 0xff, 0xff, 0x74, 0x5d, 0xff, 0xff,
   0x78, 0x5d, 0xff, 0xff, 0x7c, 0x5d, 0xff, 0xff, 0x80, 0x5d, 0xff, 0xff,
   0x84, 0x5d, 0xff, 0xff, 0x88, 0x5d, 0xff, 0xff, 0x8c, 0x5d, 0xff, 0xff,
   0x90, 0x5d, 0xff, 0xff, 0xf6, 0xb9, 0xff, 0xff, 0x04, 0x00, 0x00, 0x00,
   0x90, 0x00, 0x00, 0x00, 0x7f, 0x65, 0x34, 0xb1, 0x10, 0xd1, 0xbd, 0x64,
   0x64, 0xbd, 0x81, 0xcc, 0x89, 0xab, 0x9d, 0x37, 0xdf, 0x2c, 0xcf, 0x34,
   0x11, 0x64, 0x7f, 0x2c, 0xa7, 0xbe, 0xdd, 0xcf, 0xe3, 0xf6, 0x81, 0xeb,
   0x0d, 0xe5, 0x64, 0x19, 0xce, 0x7f, 0x66, 0x69, 0x78, 0x1d, 0x30, 0x4a,
   0x29, 0xd6, 0x6f, 0x23, 0x81, 0x94, 0x1a, 0x36, 0x61, 0x26, 0x0c, 0x13,
   0xe9, 0xa2, 0x01, 0x6c, 0x81, 0x8a, 0x25, 0x87, 0x87, 0x85, 0xdc, 0x4b,
   0xc0, 0x81, 0x0e, 0x36, 0x42, 0x4b, 0x33, 0xd4, 0x67, 0x7f, 0x13, 0x15,
   0xdc, 0xfc, 0x1e, 0xe0, 0x1f, 0x24, 0x41, 0x72, 0x7f, 0x31, 0x06, 0x62,
   0xd0, 0x38, 0x03, 0xbc, 0xd2, 0x7f, 0x58, 0xfa, 0x08, 0xba, 0x62, 0x31,
   0x7f, 0xf0, 0x5d, 0xc6, 0xe5, 0x1a, 0xda, 0xac, 0x3c, 0x5a, 0x81, 0x33,
   0xac, 0x7f, 0x64, 0x03, 0x10, 0x66, 0xbc, 0x11, 0x22, 0x21, 0x62, 0x7f,
   0x00, 0xca, 0xb7, 0x03, 0xb3, 0x1c, 0x08, 0x5a, 0xfd, 0x3b, 0x81, 0xb5,
   0xea, 0xc6, 0x32, 0xac, 0x92, 0xba, 0xff, 0xff, 0x04, 0x00, 0x00, 0x00,
   0x40, 0x00, 0x00, 0x00, 0xe2, 0xeb, 0xff, 0xff, 0xf6, 0xc9, 0xff, 0xff,
   0x86, 0xf5, 0xff, 0xff, 0x52, 0x20, 0x00, 0x00, 0xa9, 0x19, 0x00, 0x00,
   0xd9, 0xec, 0xff, 0xff, 0xaf, 0x15, 0x00, 0x00, 0x36, 0x22, 0x00, 0x00,
   0x89, 0x0c, 0x00, 0x00, 0x28, 0xfa, 0xff, 0xff, 0x87, 0x0c, 0x00, 0x00,
   0x4a, 0x00, 0x00, 0x00, 0xbf, 0x0b, 0x00, 0x00, 0x43, 0xcd, 0xff, 0xff,
   0x46, 0xca, 0xff, 0xff, 0xd9, 0xd6, 0xff, 0xff, 0xde, 0xba, 0xff, 0xff,
   0x04, 0x00, 0x00, 0x00, 0x00, 0x02, 0x00, 0x00, 0x73, 0xce, 0x5c, 0xc6,
   0xae, 0x63, 0x16, 0x2e, 0x00, 0xa1, 0x4f, 0x7f, 0xa4, 0x1e, 0x47, 0x31,
   0xb7, 0xb2, 0x56, 0x81, 0x21, 0x16, 0xf6, 0xff, 0x4a, 0xd4, 0x1f, 0x43,
   0x21, 0x9c, 0x51, 0x4c, 0xe5, 0x67, 0x81, 0x1f, 0x53, 0xe6, 0xd3, 0x15,
   0xf6, 0x2e, 0xf0, 0xf2, 0xcb, 0x59, 0x27, 0x9d, 0xfa, 0xe9, 0xed, 0x2a,
   0x00, 0x4b, 0xbd, 0x0f, 0x1a, 0xfd, 0x20, 0x17, 0x81, 0xcf, 0x1a, 0x31,
   0xc4, 0x64, 0x3f, 0xf2, 0x1d, 0xf5, 0xf3, 0x1d, 0x27, 0x37, 0xec, 0x40,
   0x19, 0xf4, 0xe6, 0x81, 0x20, 0x19, 0xc6, 0x0a, 0xf1, 0xbb, 0x25, 0x81,
   0x4d, 0xef, 0x42, 0x22, 0xc5, 0x04, 0x60, 0x60, 0x31, 0x51, 0xfc, 0x42,
   0x32, 0xc1, 0x27, 0xd7, 0x34, 0x68, 0xf5, 0x66, 0xd3, 0x7f, 0x07, 0x1d,
   0x33, 0x7f, 0xcd, 0x07, 0xcf, 0x9d, 0xc9, 0xe1, 0x48, 0xe5, 0x5c, 0xb4,
   0x2c, 0x3b, 0x18, 0x4e, 0x55, 0x10, 0x20, 0x0a, 0x55, 0x57, 0x02, 0x81,
   0xf1, 0xe8, 0xd5, 0x2f, 0x13, 0xc1, 0x74, 0x44, 0x40, 0xda, 0xc9, 0xb0,
   0x82, 0xc3, 0x72, 0x7c, 0x2d, 0x81, 0x14, 0xf4, 0x33, 0x3f, 0xbc, 0xa5,
   0x26, 0x67, 0x45, 0x05, 0xd4, 0xfa, 0x3e, 0x65, 0xfa, 0x1c, 0x20, 0x01,
   0x2e, 0x4c, 0x7f, 0x00, 0x7e, 0xf0, 0x38, 0x8c, 0x23, 0xcd, 0xf8, 0xbc,
   0x0d, 0x5c, 0x4b, 0xf5, 0x53, 0xe9, 0xe5, 0x81, 0xea, 0xda, 0x67, 0xf1,
   0x81, 0xc1, 0x3a, 0xf7, 0xb1, 0x44, 0xa2, 0xf8, 0x3c, 0xd4, 0x09, 0x0a,
   0xb4, 0xbc, 0x28, 0x50, 0x6a, 0x3c, 0x0f, 0x13, 0x74, 0x7f, 0x5a, 0xb5,
   0x8a, 0xe0, 0x83, 0xaf, 0xbe, 0xe0, 0xf0, 0x58, 0x7f, 0x22, 0x03, 0xec,
   0x64, 0xdb, 0x7f, 0xae, 0x6d, 0x09, 0x07, 0xb5, 0xf9, 0x15, 0xf6, 0xe3,
   0xe1, 0xab, 0xab, 0xb8, 0x2c, 0x2a, 0xf3, 0xf4, 0xdb, 0xf5, 0x81, 0x21,
   0xc3, 0x62, 0x37, 0xb4, 0x2c, 0x73, 0x42, 0x66, 0x0c, 0x6e, 0xd0, 0x7f,
   0x38, 0x36, 0xbc, 0x9d, 0x22, 0x5a, 0xd5, 0x81, 0x01, 0x48, 0x87, 0x4d,
   0x15, 0xe1, 0xf0, 0xfc, 0x26, 0xce, 0x62, 0x05, 0x53, 0x7f, 0xde, 0x1f,
   0xf4, 0x07, 0xf8, 0xc9, 0xc6, 0x62, 0xe6, 0xc8, 0x38, 0x11, 0x39, 0xfe,
   0xee, 0x18, 0x4b, 0xfc, 0xf7, 0xc7, 0xf0, 0x7f, 0x8d, 0xe0, 0xc0, 0x13,
   0x35, 0x7c, 0x2c, 0x56, 0xc5, 0xc3, 0x32, 0x0e, 0x9a, 0x2b, 0xc0, 0x38,
   0xfe, 0x5e, 0x81, 0x69, 0x08, 0xec, 0x21, 0xbc, 0x05, 0xce, 0xee, 0x81,
   0x51, 0xf2, 0x08, 0x95, 0x2c, 0x15, 0xd3, 0xb8, 0x0c, 0x8e, 0xf5, 0x00,
   0x7f, 0x7d, 0xa9, 0x06, 0xfc, 0x08, 0x25, 0xb5, 0x17, 0x75, 0xfc, 0xb4,
   0x16, 0x12, 0x58, 0x15, 0xfc, 0x81, 0x40, 0x07, 0xf8, 0xe3, 0x27, 0xf7,
   0xdf, 0xc4, 0x1a, 0xef, 0x12, 0x19, 0x53, 0x25, 0x0f, 0x7f, 0xbc, 0x7d,
   0xe8, 0x78, 0xbb, 0x11, 0xb1, 0x49, 0x58, 0xe1, 0xbc, 0xef, 0xff, 0xd8,
   0x81, 0x0b, 0x7a, 0x03, 0xbf, 0x10, 0xf0, 0x45, 0xf0, 0x1c, 0xd7, 0x1e,
   0xe8, 0x04, 0x0d, 0xa8, 0xf3, 0x53, 0x81, 0x3d, 0x25, 0x4d, 0xdc, 0x1d,
   0x13, 0x41, 0x1c, 0x03, 0x1c, 0xb8, 0x14, 0xb7, 0x57, 0x24, 0x81, 0x3c,
   0x1d, 0x17, 0xd5, 0xb1, 0xee, 0x3e, 0x68, 0x44, 0xe9, 0x07, 0xe7, 0x21,
   0x05, 0x1b, 0x23, 0xe5, 0xeb, 0xe7, 0x07, 0x14, 0xa0, 0x1b, 0x03, 0x4a,
   0x23, 0x03, 0x56, 0x7f, 0xa7, 0x3a, 0xbd, 0x3b, 0x90, 0xe5, 0x3f, 0x4a,
   0x14, 0x81, 0xb0, 0xab, 0x50, 0x9e, 0x11, 0xe7, 0xf9, 0x37, 0x05, 0x78,
   0xc7, 0x5a, 0x68, 0x7f, 0xb1, 0x0c, 0x0f, 0x90, 0x5b, 0x44, 0x08, 0xab,
   0x55, 0xa7, 0x3d, 0x32, 0xfc, 0x9a, 0xd6, 0x7a, 0x81, 0x3e, 0xbd, 0x39,
   0x01, 0x2f, 0x6a, 0xef, 0xea, 0xbc, 0xff, 0xff, 0x04, 0x00, 0x00, 0x00,
   0x80, 0x00, 0x00, 0x00, 0xdd, 0xbf, 0xff, 0xff, 0xdc, 0xe2, 0xff, 0xff,
   0x7e, 0xef, 0xff, 0xff, 0xef, 0xf6, 0xff, 0xff, 0xbc, 0xf1, 0xff, 0xff,
   0xc4, 0xee, 0xff, 0xff, 0x67, 0xea, 0xff, 0xff, 0x8d, 0xf2, 0xff, 0xff,
   0xa0, 0x03, 0x00, 0x00, 0x6c, 0xff, 0xff, 0xff, 0x97, 0xeb, 0xff, 0xff,
   0xe4, 0xdf, 0xff, 0xff, 0xf9, 0xe8, 0xff, 0xff, 0x23, 0x0f, 0x00, 0x00,
   0x8e, 0x26, 0x00, 0x00, 0x40, 0xf4, 0xff, 0xff, 0x71, 0xe4, 0xff, 0xff,
   0xac, 0x1f, 0x00, 0x00, 0x9d, 0xd9, 0xff, 0xff, 0xa5, 0x0f, 0x00, 0x00,
   0x7f, 0xea, 0xff, 0xff, 0xb8, 0x21, 0x00, 0x00, 0x58, 0xf0, 0xff, 0xff,
   0xe8, 0xf5, 0xff, 0xff, 0x60, 0x0d, 0x00, 0x00, 0xf8, 0xfb, 0xff, 0xff,
   0x97, 0xf2, 0xff, 0xff, 0xfb, 0xff, 0xff, 0xff, 0x8c, 0xec, 0xff, 0xff,
   0xdd, 0x11, 0x00, 0x00, 0x99, 0x12, 0x00, 0x00, 0xf9, 0x25, 0x00, 0x00,
   0x76, 0xbd, 0xff, 0xff, 0x04, 0x00, 0x00, 0x00, 0x00, 0x02, 0x00, 0x00,
   0x30, 0x06, 0x27, 0xea, 0x0b, 0xb3, 0xfc, 0xfb, 0xbe, 0x0d, 0x1f, 0xc3,
   0x7f, 0x04, 0xd9, 0xd4, 0x4a, 0xeb, 0xe4, 0x23, 0x69, 0xcf, 0x3d, 0xdf,
   0x10, 0x35, 0x37, 0xef, 0x4f, 0x37, 0xfa, 0x27, 0xcb, 0x30, 0x3b, 0x0c,
   0x42, 0x36, 0x38, 0x39, 0x2f, 0x0c, 0x09, 0x40, 0x85, 0x34, 0x20, 0xeb,
   0x5b, 0xfa, 0xe5, 0xf6, 0x81, 0x07, 0x1f, 0x0d, 0x3e, 0x28, 0x2d, 0x42,
   0xa3, 0xd3, 0xd1, 0x27, 0x2c, 0x4e, 0xe5, 0xac, 0x4b, 0x09, 0xd3, 0x04,
   0x26, 0x41, 0xf1, 0xaa, 0x7f, 0x16, 0x9c, 0x02, 0x35, 0xd6, 0xfe, 0xf6,
   0x09, 0x2c, 0x09, 0x02, 0x39, 0x78, 0x3c, 0xd5, 0x44, 0xde, 0x0b, 0x2f,
   0xe2, 0xec, 0xeb, 0x40, 0xc2, 0xfe, 0xad, 0xfb, 0xe9, 0x0e, 0x0d, 0x81,
   0x52, 0x26, 0x27, 0xf3, 0xa6, 0xf1, 0x01, 0xe5, 0x01, 0x34, 0xfe, 0xf2,
   0x59, 0xe5, 0x22, 0x08, 0xd8, 0xf7, 0x14, 0xf5, 0x5f, 0xc2, 0xd7, 0x4e,
   0x81, 0xd5, 0x18, 0x1d, 0x2d, 0xc9, 0x1b, 0xb3, 0x0f, 0xe7, 0xd6, 0xba,
   0xa1, 0x1a, 0x4c, 0xf3, 0x1f, 0xd7, 0x2c, 0xe7, 0x39, 0xc9, 0x0d, 0xfd,
   0x5d, 0xfc, 0x11, 0xe5, 0xd6, 0x74, 0xc1, 0xfd, 0xf9, 0xd5, 0x2a, 0xaf,
   0x7f, 0xeb, 0x94, 0xda, 0xd5, 0x1d, 0xfe, 0x40, 0x3c, 0x14, 0x48, 0xc0,
   0xa0, 0x17, 0x30, 0x00, 0x17, 0xbb, 0xdd, 0x7a, 0xea, 0x90, 0xe0, 0x44,
   0x14, 0x0f, 0x08, 0x4d, 0xc1, 0xfc, 0xd2, 0xd6, 0x23, 0xea, 0xe9, 0x0d,
   0x0a, 0x23, 0x16, 0xe2, 0xf5, 0x18, 0x1c, 0xf8, 0xe2, 0x1d, 0xf7, 0xf6,
   0x47, 0xe0, 0x20, 0x21, 0x81, 0x01, 0x10, 0xf2, 0xef, 0x20, 0xec, 0x01,
   0x42, 0xd1, 0xe0, 0x2e, 0x02, 0x24, 0x49, 0x1c, 0x7f, 0xf4, 0x02, 0xe5,
   0x58, 0x10, 0xf5, 0x4f, 0x3c, 0xf9, 0x11, 0x63, 0xe9, 0x02, 0xed, 0xbb,
   0x1d, 0x1e, 0x1e, 0x17, 0x1f, 0xe2, 0xf4, 0xf8, 0xcc, 0xbe, 0xc4, 0xee,
   0xdc, 0x01, 0x2a, 0x0d, 0x7f, 0x07, 0xec, 0x2b, 0x0d, 0x11, 0xdb, 0xfc,
   0x7d, 0x07, 0x00, 0x06, 0x37, 0x17, 0x0d, 0xf8, 0x6f, 0xf7, 0x09, 0xf6,
   0x51, 0x2d, 0xe3, 0x07, 0x1c, 0xeb, 0x12, 0xd8, 0x05, 0xf5, 0x08, 0x23,
   0x7f, 0xee, 0xef, 0xf3, 0x27, 0xe8, 0xed, 0x14, 0x30, 0xee, 0xde, 0xfd,
   0x0a, 0x1f, 0xfe, 0x03, 0x46, 0xcf, 0xf0, 0xfb, 0xd0, 0xf4, 0xe0, 0x35,
   0xc4, 0x17, 0xf3, 0xee, 0x01, 0xe3, 0xe6, 0xde, 0xef, 0x35, 0xf1, 0xcc,
   0x88, 0x01, 0xe6, 0xed, 0x01, 0x28, 0x04, 0x9a, 0x4b, 0xfa, 0x26, 0xed,
   0x81, 0xce, 0x32, 0x42, 0x67, 0xeb, 0x1c, 0x06, 0xe4, 0x51, 0x33, 0x01,
   0xd8, 0xee, 0xaa, 0x7f, 0x05, 0xfc, 0xc8, 0xfa, 0xa5, 0xbe, 0x04, 0xef,
   0x98, 0x1a, 0xe8, 0x72, 0xbb, 0x08, 0x08, 0x0c, 0x8c, 0xbf, 0x47, 0xf9,
   0x28, 0x71, 0x2d, 0x3b, 0xdf, 0x3d, 0xf1, 0xf5, 0x1a, 0xfa, 0x29, 0xe4,
   0xbb, 0x54, 0x46, 0xe0, 0xdb, 0x08, 0xdb, 0xd8, 0xc5, 0x02, 0x52, 0xfa,
   0xf3, 0xac, 0x73, 0x5c, 0x81, 0xb5, 0xfb, 0x22, 0x5a, 0xe6, 0xb7, 0x23,
   0xe9, 0xf7, 0xb1, 0xe9, 0xea, 0x38, 0x19, 0xe3, 0x7f, 0xce, 0xf1, 0x1a,
   0x08, 0xf7, 0xb9, 0x2c, 0x42, 0xbd, 0xd8, 0x36, 0x1d, 0x5c, 0xdb, 0xc0,
   0x3d, 0x78, 0x5c, 0x4c, 0x00, 0x0a, 0x3f, 0xf8, 0x63, 0x10, 0x53, 0x42,
   0x2f, 0xe6, 0x2a, 0x60, 0xd5, 0xfd, 0xeb, 0xfb, 0x4b, 0x0d, 0x02, 0xdc,
   0x81, 0x31, 0x2b, 0x0f, 0x30, 0x20, 0x4c, 0x24, 0x9a, 0x02, 0xfb, 0xdb,
   0x04, 0x00, 0x4c, 0xee, 0x22, 0x36, 0x38, 0x39, 0xf5, 0x11, 0x07, 0x39,
   0xb4, 0x15, 0xf6, 0xe7, 0xfc, 0xcf, 0x2a, 0x07, 0x81, 0x03, 0x31, 0x32,
   0xb9, 0xd8, 0x17, 0xfa, 0xce, 0xea, 0xf8, 0xe7, 0x82, 0xbf, 0xff, 0xff,
   0x04, 0x00, 0x00, 0x00, 0x40, 0x00, 0x00, 0x00, 0x8d, 0x07, 0x00, 0x00,
   0x46, 0xf6, 0xff, 0xff, 0xc1, 0xe7, 0xff, 0xff, 0x9a, 0x19, 0x00, 0x00,
   0x48, 0x03, 0x00, 0x00, 0xb8, 0x19, 0x00, 0x00, 0xc9, 0x18, 0x00, 0x00,
   0x58, 0x05, 0x00, 0x00, 0x58, 0x13, 0x00, 0x00, 0xf8, 0xf5, 0xff, 0xff,
   0x69, 0x2a, 0x00, 0x00, 0xff, 0xcb, 0xff, 0xff, 0xbd, 0x03, 0x00, 0x00,
   0x74, 0x30, 0x00, 0x00, 0x95, 0xf5, 0xff, 0xff, 0x39, 0x0c, 0x00, 0x00,
   0xce, 0xbf, 0xff, 0xff, 0x04, 0x00, 0x00, 0x00, 0x80, 0x00, 0x00, 0x00,
   0x05, 0x98, 0xb9, 0xf7, 0x7f, 0xd4, 0x14, 0x0f, 0xf7, 0x98, 0xbd, 0x2e,
   0xa8, 0x28, 0xf2, 0xe7, 0x11, 0x81, 0x06, 0xdb, 0x37, 0xc8, 0x20, 0xb2,
   0xf3, 0x00, 0xba, 0xcf, 0xa4, 0xc1, 0xd4, 0xff, 0xd8, 0xca, 0xd7, 0x24,
   0x2d, 0x4b, 0x68, 0xde, 0x04, 0x38, 0x33, 0xdd, 0x50, 0xff, 0x81, 0xc4,
   0x86, 0x01, 0x08, 0x30, 0x7f, 0x1e, 0x4b, 0xae, 0xf2, 0x61, 0x4c, 0x28,
   0x48, 0xac, 0xf2, 0x2c, 0xf3, 0xa5, 0xd1, 0x01, 0x5a, 0xfe, 0xf2, 0xaa,
   0xc4, 0x12, 0x20, 0xdf, 0x06, 0x22, 0x81, 0xc2, 0x52, 0xa0, 0x17, 0x41,
   0x26, 0x23, 0xf3, 0x31, 0x3b, 0x5c, 0x2d, 0xe1, 0xd3, 0x43, 0x81, 0xdd,
   0xc4, 0xb9, 0x1f, 0xd3, 0x1e, 0x0c, 0xf1, 0x0e, 0x00, 0x14, 0x03, 0x16,
   0xb2, 0xcb, 0x81, 0xa1, 0xf8, 0x81, 0xec, 0xe6, 0x65, 0x12, 0xcc, 0x97,
   0xbb, 0xc9, 0x0d, 0xbf, 0xa1, 0x20, 0xf3, 0xa7, 0x5a, 0xc0, 0xff, 0xff,
   0x04, 0x00, 0x00, 0x00, 0x20, 0x00, 0x00, 0x00, 0x6c, 0x05, 0x00, 0x00,
   0x62, 0xea, 0xff, 0xff, 0x50, 0x27, 0x00, 0x00, 0x2f, 0xf8, 0xff, 0xff,
   0x43, 0xe8, 0xff, 0xff, 0xdc, 0x03, 0x00, 0x00, 0x76, 0xf0, 0xff, 0xff,
   0x53, 0xe2, 0xff, 0xff, 0x86, 0xc0, 0xff, 0xff, 0x04, 0x00, 0x00, 0x00,
   0x80, 0x04, 0x00, 0x00, 0x20, 0x00, 0x11, 0x3a, 0x50, 0x34, 0x12, 0x2d,
   0x2e, 0x1e, 0x47, 0x50, 0x54, 0x7f, 0x23, 0xdf, 0x50, 0x42, 0x0e, 0x26,
   0x47, 0x7a, 0xf2, 0x31, 0x15, 0xe5, 0x1b, 0xd6, 0x4d, 0xf7, 0x0f, 0x36,
   0x45, 0x1a, 0x24, 0xf5, 0x3f, 0x02, 0x3c, 0xf1, 0x19, 0x3a, 0x0e, 0x02,
   0x31, 0x20, 0xfe, 0xfe, 0x70, 0x20, 0x35, 0xe4, 0x20, 0x58, 0x08, 0x31,
   0x54, 0x1d, 0x34, 0xc5, 0x3e, 0x58, 0xfb, 0x3a, 0x68, 0x30, 0xe3, 0xdb,
   0x31, 0x20, 0x4f, 0x42, 0x3f, 0xd7, 0x2a, 0xe8, 0x14, 0x58, 0x17, 0xd0,
   0x59, 0xda, 0x48, 0x35, 0x26, 0x7b, 0xf1, 0x04, 0x7f, 0xe2, 0x43, 0x1f,
   0xf3, 0x59, 0xfd, 0x1c, 0x18, 0xc9, 0xe6, 0xcf, 0xdd, 0x1e, 0x03, 0x0f,
   0xe8, 0xf4, 0xcb, 0xa0, 0xbe, 0xe3, 0x1e, 0x0e, 0xf6, 0x13, 0xff, 0x81,
   0xc4, 0xf7, 0x11, 0x06, 0x3e, 0x18, 0xd4, 0x23, 0xd7, 0x42, 0x07, 0xf6,
   0x15, 0xf1, 0xfc, 0xd7, 0xfd, 0x40, 0xc5, 0x21, 0x69, 0xea, 0xd7, 0xcc,
   0xf1, 0x0c, 0xfb, 0x0d, 0x65, 0xed, 0x3d, 0x0a, 0x0c, 0x2f, 0x46, 0xe9,
   0x6b, 0x1c, 0x50, 0x1d, 0x2f, 0x72, 0x07, 0x05, 0x14, 0x64, 0x5a, 0xe3,
   0x7f, 0x16, 0x5b, 0x05, 0xeb, 0x05, 0x19, 0x13, 0x7a, 0x1f, 0x71, 0x25,
   0x02, 0x6e, 0x1b, 0xfe, 0x35, 0x25, 0x27, 0x37, 0x49, 0x47, 0xf0, 0x06,
   0x6c, 0x13, 0x13, 0x31, 0x01, 0x45, 0x4f, 0x1e, 0x57, 0xf7, 0x5b, 0x53,
   0xf9, 0x56, 0x6e, 0xad, 0x6e, 0xe3, 0x3f, 0xee, 0x1a, 0x24, 0x42, 0xde,
   0x4f, 0xf1, 0x2d, 0x0f, 0x12, 0x9e, 0x52, 0x15, 0xe0, 0xee, 0x99, 0xdd,
   0x28, 0xd8, 0x37, 0x58, 0xc9, 0x0c, 0xaa, 0xe4, 0x20, 0xc0, 0x42, 0x52,
   0xe7, 0x2b, 0xd9, 0xff, 0x25, 0xbd, 0x2a, 0xf8, 0xcf, 0x40, 0x8c, 0xa8,
   0x09, 0xca, 0x34, 0x1f, 0xca, 0x5b, 0x95, 0x98, 0x2b, 0x8a, 0xfd, 0x05,
   0xb5, 0x21, 0xa0, 0x94, 0x01, 0xba, 0xd6, 0x0e, 0x81, 0xf8, 0x9f, 0xa0,
   0x0a, 0x93, 0xde, 0x23, 0xb4, 0x07, 0x96, 0x9a, 0x23, 0x97, 0xe2, 0x16,
   0x8f, 0x0f, 0x99, 0x9c, 0x0f, 0x29, 0x64, 0x29, 0x00, 0x5d, 0xe5, 0x37,
   0x16, 0x58, 0x7f, 0xd0, 0x1c, 0x40, 0x35, 0x18, 0x33, 0xe8, 0x2f, 0x1a,
   0x6b, 0x55, 0x21, 0xd7, 0x1d, 0xfb, 0x5f, 0x2a, 0x7f, 0x1b, 0xec, 0x3e,
   0x03, 0x31, 0xf9, 0x0c, 0x62, 0x41, 0x7f, 0xd7, 0x17, 0xdd, 0x62, 0x38,
   0x20, 0x1c, 0x2d, 0x48, 0x44, 0x4c, 0x28, 0xd8, 0x7e, 0x36, 0x57, 0xe7,
   0x2c, 0x60, 0x0c, 0x14, 0x79, 0x43, 0x35, 0x12, 0x7b, 0x60, 0x75, 0x0b,
   0x71, 0xd0, 0x75, 0xf1, 0x11, 0xe4, 0x33, 0x01, 0xf8, 0x1f, 0xe6, 0xfc,
   0xe3, 0xf5, 0x27, 0x2a, 0x08, 0x19, 0x07, 0xee, 0x0b, 0xff, 0x1f, 0x05,
   0xed, 0x20, 0x06, 0x11, 0x06, 0xfa, 0xf9, 0x10, 0xe3, 0x54, 0xda, 0xf7,
   0xe9, 0xec, 0x00, 0x22, 0xe8, 0xff, 0xf6, 0xf4, 0x00, 0xed, 0xef, 0x26,
   0xe5, 0x39, 0xe3, 0xe5, 0xac, 0xcc, 0xba, 0x2b, 0xce, 0xf4, 0xcd, 0xbe,
   0xa7, 0xe2, 0xbd, 0x44, 0xb3, 0x81, 0xd4, 0xe3, 0xba, 0xe8, 0xce, 0x47,
   0xda, 0xdc, 0xcd, 0xdb, 0x81, 0xed, 0x17, 0x2f, 0xd1, 0xc6, 0xcf, 0xf5,
   0x9f, 0xd4, 0xff, 0x2b, 0xc6, 0xe4, 0x03, 0xf5, 0x9a, 0xc6, 0x24, 0xfd,
   0xf1, 0xf8, 0xea, 0xe9, 0xf0, 0x01, 0x06, 0x05, 0xcc, 0xef, 0xe6, 0xd3,
   0xbc, 0xd4, 0x03, 0x18, 0xfd, 0x09, 0xc2, 0xca, 0xd1, 0xd3, 0xff, 0x0c,
   0xcb, 0xe9, 0xda, 0xc3, 0xbb, 0x04, 0x07, 0xdc, 0x0b, 0xc7, 0x05, 0xef,
   0xe4, 0xdb, 0x24, 0xc8, 0xfe, 0xef, 0x04, 0xf2, 0xb5, 0xd8, 0x19, 0xb2,
   0xe8, 0xe0, 0xe0, 0xed, 0xda, 0xe8, 0x0b, 0x61, 0xec, 0xad, 0xe5, 0xff,
   0xb7, 0xde, 0x26, 0x64, 0x1c, 0xbb, 0xc5, 0xc6, 0x1e, 0x06, 0x14, 0x3e,
   0x21, 0x9d, 0xf4, 0x1d, 0xeb, 0xc9, 0x3f, 0xe4, 0x14, 0x1a, 0xdf, 0xd5,
   0xee, 0x24, 0x04, 0x0a, 0x29, 0xe9, 0xed, 0xdf, 0x27, 0x19, 0x2e, 0x1d,
   0xf2, 0x08, 0xd4, 0xca, 0x44, 0x2f, 0x06, 0x8b, 0xe7, 0x39, 0xf1, 0x19,
   0x43, 0xf9, 0x45, 0xb9, 0x03, 0x34, 0x31, 0xd2, 0x7f, 0xee, 0x25, 0x8f,
   0xfb, 0x42, 0x12, 0x1d, 0x0f, 0xbd, 0x43, 0x2c, 0xdf, 0x23, 0xb5, 0xf2,
   0x00, 0xc9, 0x09, 0x15, 0xab, 0x33, 0xb0, 0xde, 0x12, 0xa5, 0x33, 0x0d,
   0xc5, 0x25, 0xd2, 0xb2, 0x12, 0xcd, 0x1c, 0xe0, 0xad, 0xd9, 0x8e, 0xd2,
   0x0c, 0xb0, 0xe2, 0xea, 0x96, 0x1c, 0xc1, 0xda, 0xee, 0xd1, 0xdd, 0xbe,
   0xc4, 0x20, 0xba, 0xca, 0x3f, 0x95, 0xb1, 0xd2, 0x81, 0x1f, 0xa7, 0xa9,
   0x16, 0xaa, 0xcd, 0xcb, 0xa7, 0x32, 0xab, 0xc5, 0x29, 0xaf, 0xb1, 0x09,
   0xa6, 0xf7, 0xae, 0xa0, 0xfb, 0xa9, 0xe0, 0xcc, 0x92, 0xa6, 0xc7, 0xd3,
   0x24, 0xaa, 0xc5, 0xbf, 0x9d, 0xa5, 0xbb, 0xd7, 0xdc, 0xba, 0xcf, 0x89,
   0xbc, 0xc9, 0xc9, 0xb4, 0xc9, 0xa1, 0x06, 0xd4, 0x81, 0xf8, 0x98, 0xc6,
   0xdb, 0x9e, 0x02, 0xef, 0xa9, 0xf6, 0xd1, 0xce, 0xbe, 0xcb, 0x10, 0xe5,
   0xab, 0xf0, 0xa7, 0xd1, 0xd8, 0xc7, 0x2f, 0x04, 0x8d, 0xb5, 0x93, 0xb1,
   0xaf, 0xb1, 0x06, 0x1d, 0x8a, 0xd4, 0x9e, 0x95, 0xb9, 0xa3, 0x2f, 0x10,
   0x9b, 0xd3, 0xc0, 0x97, 0xc4, 0xd8, 0x2d, 0x13, 0xd3, 0xd7, 0xe9, 0xc8,
   0xbb, 0xdc, 0xfd, 0x33, 0xbe, 0xd0, 0xe2, 0xd2, 0xc3, 0xcf, 0x18, 0x25,
   0xc0, 0xc2, 0xd9, 0xc5, 0xf5, 0xd7, 0xe4, 0xfd, 0xc8, 0xda, 0xf9, 0xde,
   0xe7, 0x01, 0xdb, 0xf0, 0xf1, 0xb1, 0xd7, 0xdf, 0xd2, 0xe0, 0xf5, 0x1c,
   0xe1, 0x81, 0xd7, 0x03, 0x0f, 0xd9, 0xf9, 0x29, 0xed, 0xf4, 0xd7, 0xf3,
   0x39, 0xbb, 0xc1, 0x2a, 0xe0, 0x06, 0xd2, 0xd4, 0x3a, 0xbf, 0xc0, 0x34,
   0xb2, 0x29, 0xaf, 0xec, 0x4d, 0x2d, 0x06, 0x53, 0x63, 0x2b, 0x11, 0xec,
   0x7f, 0x59, 0x5c, 0x40, 0x29, 0x0c, 0x02, 0x45, 0x72, 0x55, 0x6d, 0x0c,
   0x32, 0x5d, 0x1f, 0x2c, 0x46, 0x60, 0x22, 0xdb, 0xf6, 0xc5, 0x24, 0x5a,
   0x2b, 0x27, 0x00, 0x06, 0x11, 0x46, 0x69, 0x09, 0xe1, 0x62, 0x08, 0x2a,
   0x72, 0x28, 0xf2, 0x60, 0xf0, 0xe2, 0x49, 0x31, 0x7d, 0xe6, 0xfa, 0x1c,
   0x23, 0x18, 0xe0, 0xac, 0x50, 0xf7, 0x5a, 0xe3, 0x73, 0xfd, 0x2d, 0xb6,
   0x77, 0x37, 0x18, 0x2a, 0xac, 0xe8, 0xcf, 0x0b, 0x14, 0x1e, 0x01, 0xf8,
   0xc1, 0xed, 0x81, 0xdd, 0xdf, 0x0c, 0xe6, 0x0b, 0xb5, 0xf3, 0xb1, 0x14,
   0xf0, 0xe3, 0xfc, 0x1e, 0x3d, 0x05, 0x1e, 0xed, 0x13, 0x10, 0x04, 0x11,
   0x22, 0xeb, 0xe8, 0xd9, 0x0a, 0xd4, 0xfe, 0x08, 0x04, 0x21, 0x01, 0xe1,
   0x07, 0x05, 0xff, 0xe8, 0x0a, 0xe7, 0x0b, 0x3c, 0xe8, 0x3c, 0x17, 0xe7,
   0xf9, 0xee, 0x31, 0x21, 0x10, 0xf0, 0x11, 0x13, 0x11, 0xfc, 0xf4, 0x3e,
   0x23, 0x00, 0xee, 0xf1, 0xf0, 0x47, 0x43, 0xfd, 0x11, 0x29, 0x38, 0x16,
   0xf0, 0x33, 0x44, 0x0a, 0x17, 0x1c, 0x27, 0x0f, 0x2b, 0x0b, 0x27, 0xcc,
   0x57, 0x12, 0x12, 0x17, 0x6b, 0x3a, 0xbe, 0xc5, 0x17, 0x10, 0xfa, 0x26,
   0x47, 0xed, 0x00, 0x09, 0x18, 0x34, 0x01, 0x22, 0x48, 0x01, 0xda, 0xc4,
   0x1a, 0x1d, 0x30, 0x4b, 0xfc, 0x26, 0xcb, 0xa8, 0xf5, 0x2d, 0x12, 0x34,
   0x1b, 0x28, 0xae, 0xba, 0x01, 0x24, 0x07, 0x42, 0x3f, 0x3b, 0xf3, 0x81,
   0x1a, 0x0a, 0x3d, 0xff, 0x09, 0x31, 0x60, 0x90, 0x1f, 0xda, 0x67, 0x68,
   0xf5, 0x20, 0x26, 0xc5, 0x7f, 0x27, 0x39, 0x14, 0xf2, 0x56, 0x7a, 0xc8,
   0x30, 0xd4, 0x21, 0x47, 0x11, 0x45, 0xfa, 0x07, 0x53, 0x37, 0x31, 0x19,
   0x2d, 0x47, 0x26, 0xa7, 0x3c, 0x01, 0x64, 0x06, 0xfb, 0x05, 0x47, 0xb5,
   0x5c, 0x0e, 0x41, 0xf7, 0x5f, 0x43, 0xd1, 0x8a, 0x48, 0x1b, 0x3a, 0x4c,
   0x60, 0x07, 0xdb, 0x90, 0x4a, 0x21, 0x67, 0x53, 0x03, 0x1f, 0xbb, 0x83,
   0x09, 0x1f, 0x02, 0x42, 0x0f, 0x11, 0x52, 0x27, 0x04, 0x16, 0xe5, 0xdd,
   0x0b, 0x1d, 0x3f, 0x0f, 0x56, 0xdf, 0xf9, 0x0d, 0xf6, 0xf1, 0x30, 0x6e,
   0x28, 0x05, 0x2b, 0x41, 0x31, 0x39, 0xfe, 0xfb, 0xf0, 0xe0, 0x15, 0xf7,
   0xed, 0x46, 0xe2, 0x13, 0x2a, 0xd1, 0x23, 0xe3, 0xff, 0xf0, 0xea, 0xdf,
   0x23, 0xcb, 0xfa, 0x45, 0x46, 0x3e, 0xfe, 0xc6, 0x32, 0x5b, 0x18, 0x47,
   0x33, 0x3b, 0xcc, 0xcd, 0xed, 0x68, 0x51, 0x4b, 0x7f, 0xf4, 0xf0, 0x8e,
   0x29, 0x3b, 0x23, 0x3e, 0x12, 0xc5, 0xff, 0xff, 0x04, 0x00, 0x00, 0x00,
   0x40, 0x00, 0x00, 0x00, 0xaf, 0x03, 0x00, 0x00, 0x57, 0xf6, 0xff, 0xff,
   0x50, 0x22, 0x00, 0x00, 0x4c, 0x23, 0x00, 0x00, 0x7a, 0x13, 0x00, 0x00,
   0x68, 0xfa, 0xff, 0xff, 0x76, 0x05, 0x00, 0x00, 0xe9, 0x04, 0x00, 0x00,
   0xa9, 0x10, 0x00, 0x00, 0x08, 0x26, 0x00, 0x00, 0x7b, 0x04, 0x00, 0x00,
   0x1a, 0x08, 0x00, 0x00, 0xfa, 0xeb, 0xff, 0xff, 0x48, 0xf4, 0xff, 0xff,
   0x6c, 0x00, 0x00, 0x00, 0xac, 0xfd, 0xff, 0xff, 0x5e, 0xc5, 0xff, 0xff,
   0x04, 0x00, 0x00, 0x00, 0x00, 0x02, 0x00, 0x00, 0x2c, 0x42, 0x1a, 0x52,
   0x27, 0xd7, 0x7f, 0x45, 0x0a, 0x4f, 0x69, 0xe5, 0x20, 0x01, 0x1f, 0x3e,
   0x1c, 0x33, 0x81, 0x8b, 0xd6, 0x58, 0xa0, 0x19, 0xed, 0xe9, 0xb1, 0xc3,
   0xed, 0x38, 0x24, 0xfa, 0xd4, 0x6e, 0x62, 0x22, 0xf9, 0xad, 0x70, 0x69,
   0x4e, 0xdf, 0xb0, 0x15, 0x81, 0x08, 0x52, 0xfa, 0x1a, 0x7a, 0x0a, 0xca,
   0x4a, 0xf4, 0x0b, 0x2b, 0x56, 0x81, 0xe8, 0x0e, 0xa4, 0x48, 0xdc, 0x1f,
   0x02, 0x10, 0xef, 0xfd, 0x01, 0x7f, 0xcb, 0xdd, 0x14, 0xf3, 0x1f, 0xf3,
   0x0b, 0x1e, 0x59, 0x91, 0x00, 0xd1, 0x43, 0xd7, 0xcd, 0x08, 0xce, 0xe7,
   0xdc, 0xf5, 0xc5, 0xfb, 0xfd, 0x8b, 0x81, 0x31, 0x18, 0x0d, 0xe9, 0x17,
   0x46, 0xad, 0x46, 0x65, 0x2a, 0x81, 0x0d, 0x02, 0xf8, 0xf1, 0x3d, 0x41,
   0x1e, 0x41, 0x33, 0x63, 0xc4, 0x1a, 0xc3, 0x1e, 0x6d, 0x9b, 0x94, 0x17,
   0x9b, 0x57, 0x7f, 0xdf, 0xdb, 0x4e, 0x40, 0x10, 0x3c, 0xd0, 0x1d, 0x66,
   0xf7, 0x82, 0xcf, 0x41, 0xcf, 0x5f, 0x26, 0x7f, 0xe9, 0x56, 0xd6, 0x52,
   0x56, 0x11, 0x81, 0xc9, 0x55, 0xff, 0x97, 0x5b, 0xaf, 0x38, 0x41, 0x0b,
   0xe2, 0xb8, 0x02, 0x1e, 0xe2, 0x7f, 0xe0, 0xf3, 0x34, 0xd8, 0x51, 0xcb,
   0xfb, 0xfe, 0xe2, 0x92, 0x27, 0x60, 0x07, 0x00, 0x40, 0xc7, 0xfd, 0x43,
   0xd8, 0x81, 0xdd, 0xf6, 0xb2, 0x06, 0x0f, 0xf5, 0xf6, 0xe0, 0xc6, 0x46,
   0xed, 0x7f, 0xe1, 0xbf, 0xee, 0xf0, 0x3a, 0x0a, 0xe9, 0x11, 0xf2, 0xde,
   0x3c, 0x50, 0x44, 0x22, 0x30, 0xa5, 0xf2, 0x17, 0x2f, 0x81, 0xf4, 0x3e,
   0xd1, 0x35, 0x2a, 0x01, 0xc7, 0x44, 0x3c, 0x2e, 0x4f, 0xbf, 0x07, 0x7e,
   0x07, 0xc7, 0xbd, 0xfe, 0x81, 0x2f, 0x69, 0x5e, 0xcb, 0xf8, 0x10, 0x20,
   0xda, 0x3d, 0x3d, 0xd0, 0x04, 0x7f, 0x55, 0xd0, 0x0c, 0x0a, 0xcb, 0xbe,
   0x03, 0x7b, 0xcd, 0x55, 0x4b, 0xaa, 0xf3, 0x10, 0x4e, 0x81, 0xd5, 0xee,
   0x8b, 0x36, 0x28, 0x56, 0xb6, 0x4d, 0x21, 0x3f, 0x21, 0x7f, 0xf3, 0xa0,
   0xef, 0x1d, 0x9a, 0x1c, 0xca, 0x49, 0x3a, 0xb9, 0xd1, 0xf0, 0xf5, 0x0b,
   0xfb, 0x7f, 0x23, 0x07, 0x0a, 0x4d, 0x57, 0xce, 0x02, 0x14, 0x09, 0x0b,
   0x01, 0x45, 0x06, 0x40, 0xe6, 0x7f, 0xba, 0x29, 0x24, 0xc4, 0xdd, 0x36,
   0xb2, 0x7d, 0x0e, 0x08, 0xd6, 0x26, 0xf4, 0x4d, 0xe0, 0x1e, 0x34, 0x7f,
   0x27, 0x2f, 0x77, 0xdf, 0x20, 0x34, 0x3e, 0x3f, 0x0f, 0xe3, 0x30, 0xe9,
   0x14, 0x07, 0xe2, 0xd7, 0xe3, 0xf4, 0xff, 0xed, 0x7f, 0xcd, 0xc0, 0x0e,
   0x1b, 0x7f, 0x2a, 0xfe, 0x32, 0x4c, 0xf0, 0xfb, 0xd7, 0xe3, 0xd3, 0x38,
   0xd3, 0x61, 0x4d, 0xe3, 0x11, 0x41, 0x1b, 0xe9, 0x0a, 0x96, 0x37, 0x2e,
   0x13, 0x92, 0xb4, 0xea, 0x81, 0x2e, 0x05, 0xe8, 0x3b, 0x57, 0x33, 0x5c,
   0xf4, 0xb7, 0x13, 0x7f, 0xdc, 0x88, 0xaa, 0x0d, 0xc3, 0x05, 0x0b, 0x28,
   0xc8, 0xc5, 0xca, 0xff, 0xd1, 0x64, 0xf7, 0x0d, 0x18, 0x7f, 0x61, 0xd9,
   0x2f, 0xbb, 0x0c, 0xb0, 0x06, 0x7f, 0xea, 0x26, 0x09, 0xc2, 0xed, 0x71,
   0x20, 0xde, 0x2c, 0xfb, 0xa1, 0x09, 0x58, 0x50, 0xba, 0x81, 0xb5, 0x3c,
   0xb0, 0x59, 0x02, 0xa6, 0x45, 0x78, 0x51, 0x2e, 0xf1, 0xc2, 0x22, 0xce,
   0x34, 0x7f, 0xd9, 0x55, 0x46, 0x9f, 0x1c, 0x2d, 0x24, 0x83, 0xd4, 0x3e,
   0xa3, 0x62, 0xf5, 0xde, 0xf8, 0x04, 0xfd, 0xec, 0x09, 0x46, 0xeb, 0x1c,
   0x04, 0xdb, 0x81, 0x05, 0xf5, 0x3f, 0x3f, 0x07, 0x10, 0xd4, 0xdb, 0x1e,
   0xfc, 0x7c, 0xd5, 0x1e, 0x1a, 0x7f, 0x3f, 0xc9, 0x3a, 0xe8, 0x05, 0xd1,
   0xda, 0x2f, 0xf7, 0x34, 0x25, 0x7f, 0xb8, 0x03, 0xf8, 0x07, 0xf5, 0x1a,
   0x51, 0x33, 0x22, 0xf1, 0x6a, 0xc7, 0xff, 0xff, 0x04, 0x00, 0x00, 0x00,
   0x80, 0x00, 0x00, 0x00, 0x16, 0x23, 0x00, 0x00, 0xb8, 0xbd, 0xff, 0xff,
   0x06, 0x0f, 0x00, 0x00, 0xd0, 0x08, 0x00, 0x00, 0x6a, 0x08, 0x00, 0x00,
   0x28, 0xde, 0xff, 0xff, 0x1a, 0x10, 0x00, 0x00, 0x83, 0xe7, 0xff, 0xff,
   0x4e, 0x04, 0x00, 0x00, 0x89, 0xe3, 0xff, 0xff, 0x07, 0x06, 0x00, 0x00,
   0xcc, 0x0e, 0x00, 0x00, 0xab, 0x03, 0x00, 0x00, 0xa9, 0x0d, 0x00, 0x00,
   0x95, 0x07, 0x00, 0x00, 0xaa, 0x0c, 0x00, 0x00, 0x6f, 0x08, 0x00, 0x00,
   0xa4, 0xee, 0xff, 0xff, 0xcd, 0x06, 0x00, 0x00, 0x2c, 0xed, 0xff, 0xff,
   0x62, 0x1d, 0x00, 0x00, 0x0e, 0xf9, 0xff, 0xff, 0x46, 0xeb, 0xff, 0xff,
   0xc2, 0x19, 0x00, 0x00, 0x27, 0x1c, 0x00, 0x00, 0xbb, 0x14, 0x00, 0x00,
   0x50, 0x1b, 0x00, 0x00, 0x8e, 0x11, 0x00, 0x00, 0x30, 0x22, 0x00, 0x00,
   0x11, 0xfc, 0xff, 0xff, 0xe6, 0x03, 0x00, 0x00, 0xd8, 0xf5, 0xff, 0xff,
   0xf6, 0xc7, 0xff, 0xff, 0x04, 0x00, 0x00, 0x00, 0x00, 0x02, 0x00, 0x00,
   0x2a, 0xd3, 0x52, 0xfb, 0xb6, 0xbf, 0x46, 0x58, 0xf5, 0x6e, 0xcf, 0x28,
   0xd0, 0x5b, 0x59, 0xc8, 0x3d, 0x43, 0xe4, 0x43, 0x42, 0x89, 0xfa, 0x1b,
   0x3d, 0x8b, 0x50, 0xba, 0x5b, 0x49, 0x81, 0xe8, 0x12, 0x19, 0x13, 0x19,
   0x1a, 0x13, 0x0d, 0x34, 0x27, 0x4c, 0xf9, 0xe3, 0x08, 0x00, 0xe9, 0xf5,
   0x08, 0x25, 0x1e, 0x38, 0xf8, 0xb1, 0x2d, 0xf8, 0x0a, 0xc4, 0x07, 0xc5,
   0xf0, 0x7f, 0xd2, 0x2c, 0xf3, 0x1c, 0xff, 0x1f, 0x3a, 0x18, 0xe9, 0x3e,
   0x0a, 0x28, 0x38, 0x06, 0x0a, 0x0f, 0x02, 0xaa, 0xfb, 0x37, 0xf8, 0x23,
   0x18, 0x0b, 0x3e, 0x1f, 0x07, 0xad, 0xfb, 0xde, 0xe5, 0x7f, 0xc5, 0x0b,
   0x2a, 0xcc, 0xe4, 0xdf, 0x7f, 0xf7, 0xf0, 0x09, 0x01, 0x04, 0x5e, 0x1a,
   0x56, 0xe2, 0xd7, 0x19, 0xfa, 0xed, 0x25, 0xca, 0x19, 0x28, 0xed, 0x12,
   0xe5, 0x70, 0x22, 0x55, 0xf7, 0xa9, 0x4f, 0x2e, 0x6b, 0xbb, 0x4b, 0x17,
   0xc0, 0xc2, 0xfb, 0x40, 0x4a, 0x72, 0xcd, 0x3d, 0x81, 0x4f, 0x16, 0x9b,
   0x5e, 0xdc, 0x0d, 0x1a, 0x1b, 0xe0, 0x56, 0x60, 0x3c, 0x95, 0x1b, 0xfd,
   0x51, 0x30, 0xcd, 0x0b, 0xe5, 0xe3, 0xdd, 0xc2, 0x59, 0xd7, 0xc1, 0x81,
   0xc4, 0xdf, 0x71, 0xd0, 0x2d, 0xf0, 0xde, 0x44, 0xc5, 0x17, 0xfe, 0xe9,
   0x17, 0x08, 0xbf, 0xff, 0x09, 0x04, 0x02, 0x30, 0x1e, 0xdc, 0x1f, 0x4b,
   0xf1, 0x0a, 0x44, 0x3a, 0xda, 0x15, 0x3e, 0x38, 0x4d, 0x1e, 0xf2, 0xfc,
   0xab, 0x18, 0x31, 0xce, 0x1b, 0xe3, 0x41, 0x52, 0x4b, 0xa6, 0x35, 0x07,
   0x32, 0x81, 0x42, 0x11, 0x13, 0x59, 0xc5, 0x16, 0xec, 0xca, 0x03, 0xf0,
   0xa0, 0x2e, 0x1f, 0xdd, 0x12, 0x10, 0x81, 0x19, 0xb2, 0xd2, 0x15, 0xbe,
   0xe6, 0xce, 0xd5, 0xfc, 0x16, 0xa6, 0x28, 0xe3, 0x0c, 0xa4, 0xfe, 0xdf,
   0x16, 0xe1, 0x26, 0x1e, 0xcb, 0x21, 0x1f, 0xe7, 0xdb, 0xfb, 0x18, 0x42,
   0xec, 0x1b, 0x81, 0xea, 0x86, 0xde, 0x23, 0xd9, 0xfc, 0x29, 0xc7, 0x69,
   0x20, 0xe2, 0x2c, 0x10, 0xfe, 0xc5, 0xe9, 0xe9, 0x06, 0x4a, 0xb9, 0x3e,
   0x0d, 0x0e, 0xfd, 0xfb, 0x19, 0xde, 0xef, 0x1a, 0x2b, 0x38, 0xce, 0x1c,
   0x9b, 0x09, 0x2b, 0xc1, 0x11, 0x1d, 0xe8, 0x14, 0xf9, 0xb5, 0x2b, 0x0f,
   0x0f, 0xbd, 0xfd, 0xed, 0x09, 0x7f, 0xe4, 0x12, 0xff, 0xd6, 0x39, 0x1a,
   0xd0, 0x20, 0xef, 0x31, 0x28, 0x1f, 0xd3, 0x2a, 0x89, 0x00, 0xee, 0xca,
   0xf5, 0x2e, 0xfc, 0x4b, 0x1a, 0xe4, 0x3e, 0x44, 0x08, 0x8e, 0x38, 0xd3,
   0xf2, 0x7f, 0xcd, 0xfc, 0xf8, 0x1c, 0x1f, 0x0b, 0xad, 0xec, 0xfc, 0x4b,
   0x32, 0x1e, 0xb5, 0x11, 0x97, 0x35, 0x33, 0xa4, 0x16, 0x22, 0x1d, 0x51,
   0x05, 0xa5, 0x1b, 0x31, 0xeb, 0xba, 0xec, 0x03, 0x36, 0x7f, 0xff, 0xfc,
   0xed, 0xfe, 0x36, 0x2b, 0x29, 0xd1, 0x37, 0x40, 0x2f, 0x44, 0x0b, 0x27,
   0xe9, 0xfd, 0x05, 0xe5, 0x02, 0x26, 0x1b, 0x48, 0x29, 0xbf, 0x4e, 0x1e,
   0x27, 0xb8, 0x29, 0x04, 0x36, 0x7f, 0xc1, 0xf0, 0x13, 0xff, 0x1f, 0xd1,
   0x07, 0xe6, 0xde, 0xfa, 0xe5, 0xb0, 0x43, 0xd8, 0x4a, 0xf7, 0x01, 0x6e,
   0xb5, 0x56, 0x2f, 0x03, 0x29, 0x1d, 0x9b, 0x0a, 0x0d, 0x7f, 0xfc, 0x4d,
   0x06, 0xa9, 0x54, 0x47, 0xb5, 0x5c, 0xa2, 0xf9, 0x6e, 0x10, 0xe8, 0xf2,
   0xcd, 0xaf, 0x73, 0xda, 0x4b, 0xd1, 0xe8, 0xd6, 0x2d, 0x25, 0x04, 0xce,
   0xf0, 0x7f, 0xa1, 0xc8, 0xe7, 0xf4, 0xc2, 0xc3, 0xf4, 0xc0, 0xec, 0x2a,
   0xf7, 0x01, 0x12, 0x1e, 0x3f, 0xed, 0xe7, 0x22, 0x1e, 0x51, 0x1c, 0x14,
   0xf1, 0xec, 0x17, 0x06, 0x02, 0x50, 0x02, 0x4e, 0x09, 0xde, 0x5a, 0xe8,
   0xe7, 0xf0, 0x1a, 0xd7, 0xff, 0x7f, 0xef, 0x43, 0x02, 0xca, 0xff, 0xff,
   0x04, 0x00, 0x00, 0x00, 0x40, 0x00, 0x00, 0x00, 0x02, 0x0b, 0x00, 0x00,
   0x95, 0xf8, 0xff, 0xff, 0x74, 0x06, 0x00, 0x00, 0xfa, 0x02, 0x00, 0x00,
   0x54, 0x02, 0x00, 0x00, 0x52, 0xf4, 0xff, 0xff, 0xc9, 0x0f, 0x00, 0x00,
   0x66, 0xfe, 0xff, 0xff, 0x00, 0xe7, 0xff, 0xff, 0x58, 0x09, 0x00, 0x00,
   0x20, 0x15, 0x00, 0x00, 0xf1, 0x02, 0x00, 0x00, 0x70, 0xfb, 0xff, 0xff,
   0x03, 0x0f, 0x00, 0x00, 0xea, 0xea, 0xff, 0xff, 0xb2, 0xf4, 0xff, 0xff,
   0x4e, 0xca, 0xff, 0xff, 0x04, 0x00, 0x00, 0x00, 0x80, 0x00, 0x00, 0x00,
   0xf2, 0x19, 0xf8, 0xb9, 0x10, 0x3e, 0x20, 0x2a, 0x44, 0x2b, 0x24, 0x1a,
   0x0d, 0x81, 0x49, 0x7f, 0x7f, 0x49, 0xc1, 0x52, 0x2c, 0xdb, 0x18, 0x10,
   0x22, 0x46, 0x15, 0x0b, 0x78, 0xa4, 0x93, 0x7b, 0x6b, 0x29, 0xc8, 0x5e,
   0x7c, 0xfb, 0x33, 0xb4, 0x8f, 0x1a, 0x4a, 0x14, 0x36, 0x81, 0xd5, 0x33,
   0xd4, 0x21, 0x2f, 0x7f, 0x90, 0x2f, 0x86, 0xc4, 0xbd, 0xcb, 0xb4, 0xe9,
   0x29, 0x45, 0x10, 0xde, 0x28, 0x2d, 0x1b, 0xbc, 0xff, 0x3b, 0x14, 0x44,
   0x7f, 0xd2, 0x0b, 0x3d, 0xfc, 0x94, 0x00, 0x3b, 0x41, 0x49, 0x5d, 0xc5,
   0x0c, 0xdd, 0xe0, 0xcb, 0x59, 0x48, 0x1e, 0xd8, 0xfc, 0x92, 0x22, 0x7f,
   0x35, 0x25, 0x54, 0xc6, 0x23, 0xc8, 0x1d, 0xe3, 0xe7, 0x02, 0x03, 0xfc,
   0xfb, 0x81, 0x09, 0x71, 0xc9, 0x00, 0x00, 0xe7, 0xfd, 0x16, 0x2b, 0x0b,
   0x54, 0x17, 0x1e, 0x09, 0x2c, 0xad, 0xf1, 0x7f, 0xda, 0xca, 0xff, 0xff,
   0x04, 0x00, 0x00, 0x00, 0x20, 0x00, 0x00, 0x00, 0x17, 0x0c, 0x00, 0x00,
   0x35, 0x0c, 0x00, 0x00, 0xe7, 0x10, 0x00, 0x00, 0xf6, 0x06, 0x00, 0x00,
   0xf1, 0x06, 0x00, 0x00, 0x38, 0x08, 0x00, 0x00, 0xfe, 0x07, 0x00, 0x00,
   0x93, 0xf7, 0xff, 0xff, 0x06, 0xcb, 0xff, 0xff, 0x04, 0x00, 0x00, 0x00,
   0x80, 0x04, 0x00, 0x00, 0x1b, 0x98, 0xb1, 0x3e, 0xbd, 0xba, 0xff, 0x1f,
   0x22, 0x9c, 0x81, 0x3c, 0xe5, 0x03, 0xc1, 0xe9, 0xc2, 0x8f, 0xb5, 0x27,
   0xd1, 0xb2, 0xe7, 0x30, 0xdb, 0xe9, 0xca, 0xfb, 0x0f, 0xe7, 0xd6, 0xe7,
   0xe4, 0x09, 0xd7, 0x3c, 0xfb, 0x1b, 0x15, 0xd1, 0xeb, 0x03, 0xca, 0x38,
   0x06, 0x1d, 0xf8, 0x28, 0x18, 0x07, 0xc6, 0x2c, 0xe3, 0xd9, 0xd9, 0x3e,
   0x1f, 0xde, 0xd1, 0x3c, 0x0d, 0x1f, 0x30, 0x2e, 0x35, 0x14, 0x12, 0x08,
   0x0e, 0xea, 0x18, 0x3c, 0x1f, 0x20, 0x21, 0xc6, 0x19, 0x11, 0x1a, 0x55,
   0x10, 0x18, 0x00, 0xd0, 0x00, 0x10, 0x02, 0x6b, 0x13, 0x28, 0x13, 0xdd,
   0x1d, 0x11, 0x18, 0x4b, 0xf5, 0x0e, 0x03, 0x97, 0x1e, 0x17, 0xfc, 0x0a,
   0xf8, 0x18, 0x11, 0x92, 0x0c, 0x11, 0x1c, 0x17, 0x07, 0xf4, 0x16, 0x81,
   0x12, 0xf1, 0x17, 0xf8, 0x14, 0x16, 0x23, 0xd0, 0x27, 0x0a, 0x10, 0x14,
   0x01, 0xfd, 0x13, 0xc0, 0x22, 0x19, 0x19, 0x01, 0x10, 0x25, 0xf9, 0xc0,
   0x1c, 0x21, 0x26, 0x27, 0xd3, 0xd4, 0xca, 0x39, 0xed, 0xdb, 0x08, 0xed,
   0xc2, 0x88, 0x81, 0x25, 0xd7, 0xc9, 0xf2, 0x1a, 0xd6, 0xbe, 0xcb, 0x22,
   0xd5, 0x0b, 0xc6, 0x03, 0x14, 0xab, 0xc9, 0x0d, 0xe3, 0x2a, 0x1d, 0x01,
   0x27, 0xae, 0xeb, 0xf6, 0xb9, 0xff, 0x03, 0x21, 0x40, 0xa7, 0xf4, 0x2e,
   0xd9, 0x06, 0x3f, 0xd1, 0x26, 0xc8, 0xdb, 0x14, 0xe8, 0xfe, 0xe4, 0xd0,
   0x21, 0xaa, 0xd6, 0x20, 0xe7, 0x0e, 0xd5, 0xd9, 0x2c, 0xde, 0x02, 0x0c,
   0x15, 0xda, 0xfc, 0x00, 0xf6, 0x10, 0x1b, 0xe3, 0x01, 0x0d, 0x01, 0x6c,
   0xfb, 0xef, 0x00, 0xd6, 0x0b, 0x08, 0xfa, 0x5c, 0x19, 0x06, 0x28, 0xdc,
   0xfb, 0x17, 0x08, 0x7f, 0x09, 0xf4, 0xe8, 0xde, 0xfd, 0xf5, 0x03, 0xfa,
   0x00, 0xf1, 0x07, 0xc7, 0x0a, 0xe3, 0xe6, 0xf1, 0x0c, 0xf2, 0xf5, 0xd2,
   0x10, 0xec, 0xdd, 0x16, 0x13, 0x10, 0xf5, 0xd7, 0x0f, 0x1e, 0x2a, 0x2f,
   0xfd, 0xf9, 0x08, 0xba, 0xee, 0x13, 0x1a, 0x03, 0x04, 0x01, 0x0c, 0xd6,
   0x09, 0x14, 0x30, 0x25, 0xd1, 0xe9, 0xfd, 0x47, 0x03, 0x16, 0xcc, 0xf1,
   0xfe, 0xf5, 0xb0, 0x5c, 0xed, 0x10, 0xf4, 0xec, 0xdc, 0xfb, 0xeb, 0x2a,
   0x18, 0xbc, 0xcc, 0xe2, 0x23, 0xca, 0xde, 0x43, 0xd0, 0xcf, 0xe4, 0x0b,
   0xdf, 0xc8, 0xa9, 0x32, 0x21, 0x2f, 0x2b, 0xea, 0x04, 0xbe, 0xbd, 0x31,
   0x0a, 0x40, 0x31, 0xd0, 0x11, 0x8a, 0xb8, 0x3b, 0xf5, 0xd2, 0x03, 0x16,
   0xe7, 0x81, 0xc7, 0xfc, 0xf0, 0x1d, 0x0d, 0xf6, 0x0d, 0xa0, 0xa2, 0x0b,
   0xfa, 0x08, 0xca, 0x31, 0x9f, 0xb8, 0x81, 0x28, 0xcb, 0xaf, 0xb9, 0x36,
   0xec, 0xaa, 0xaa, 0x33, 0xf7, 0xeb, 0xc0, 0x2d, 0xaf, 0xad, 0xad, 0x37,
   0xf0, 0xa8, 0xbf, 0x0b, 0x21, 0xfe, 0xfd, 0x20, 0x0e, 0x3d, 0x12, 0x48,
   0x3e, 0x2c, 0xf9, 0x29, 0xee, 0x0e, 0x19, 0x70, 0x42, 0xf3, 0xf7, 0xf8,
   0x2f, 0x4c, 0x42, 0x65, 0xec, 0xc1, 0x08, 0xf3, 0x0e, 0xfc, 0x11, 0x31,
   0x3c, 0xa5, 0xa3, 0x2e, 0x04, 0x26, 0x14, 0xe5, 0x1d, 0x00, 0xec, 0x1e,
   0x01, 0x00, 0xf3, 0x08, 0x37, 0x03, 0x15, 0x82, 0xe0, 0x3c, 0x67, 0x1f,
   0x4f, 0x10, 0xee, 0xe6, 0x55, 0x2c, 0x2b, 0x7c, 0x14, 0xff, 0x34, 0xd6,
   0x41, 0x30, 0x27, 0x54, 0x30, 0x12, 0xd1, 0xe8, 0xec, 0xec, 0x0e, 0x2a,
   0x2f, 0xd9, 0x28, 0xd0, 0xf5, 0x27, 0x19, 0xe9, 0xf4, 0xcd, 0x32, 0xa8,
   0x33, 0x2f, 0xed, 0x29, 0x33, 0x24, 0x3c, 0x81, 0x1a, 0x29, 0x0d, 0xda,
   0xfd, 0x2e, 0x53, 0x99, 0xd5, 0x34, 0xfb, 0xcf, 0xf5, 0xf4, 0x17, 0x94,
   0x44, 0x2a, 0x2c, 0x2c, 0x04, 0xfd, 0x05, 0x3d, 0x20, 0x17, 0xc5, 0xf8,
   0xa9, 0x02, 0xf9, 0x2f, 0x06, 0xf3, 0x0f, 0x2c, 0x33, 0xdd, 0x1b, 0x6a,
   0x19, 0x39, 0xc1, 0x49, 0x09, 0x45, 0xfd, 0x75, 0x53, 0xef, 0xfd, 0x58,
   0x0a, 0x0d, 0x34, 0x55, 0x05, 0x0f, 0x1d, 0x10, 0xf5, 0x09, 0xd4, 0x2c,
   0x08, 0x6e, 0xe9, 0x22, 0xbc, 0x8f, 0x92, 0x7f, 0xee, 0xca, 0x86, 0x9f,
   0xc6, 0xcf, 0x97, 0x64, 0xf9, 0x21, 0x8c, 0xb3, 0x0a, 0xd8, 0xda, 0x29,
   0x23, 0xe5, 0x10, 0xea, 0x19, 0xc9, 0xb2, 0x45, 0x3a, 0x0f, 0xb7, 0x98,
   0x24, 0xbc, 0xf2, 0x2e, 0x22, 0xf8, 0xd3, 0xaa, 0x11, 0xf8, 0xd2, 0x2c,
   0xd3, 0xc7, 0xcb, 0x82, 0xdd, 0xd7, 0x1f, 0x50, 0x5a, 0xf0, 0x03, 0xd0,
   0xfe, 0x2b, 0xbc, 0x15, 0x1f, 0x05, 0xf8, 0xdb, 0xf4, 0xe9, 0x05, 0x15,
   0xf5, 0x40, 0xfb, 0xcf, 0xea, 0x19, 0xed, 0x68, 0x0e, 0x2a, 0xc3, 0x40,
   0xe7, 0xd1, 0x07, 0x27, 0x32, 0x3c, 0xbf, 0x0c, 0x32, 0xab, 0x19, 0x7f,
   0x36, 0x13, 0xf3, 0x25, 0x0b, 0xfb, 0x2c, 0xc1, 0x09, 0x30, 0x2e, 0x7f,
   0xfb, 0x3c, 0x3b, 0xbc, 0x15, 0xf4, 0x19, 0x36, 0x20, 0x45, 0x01, 0xd8,
   0xf6, 0x0a, 0x3e, 0x4f, 0x0c, 0x2d, 0x0e, 0xb1, 0x16, 0x25, 0xfb, 0x01,
   0x19, 0x07, 0x25, 0xaf, 0x1a, 0xf8, 0xe8, 0x09, 0x21, 0xf2, 0x14, 0xcc,
   0x2b, 0x18, 0x22, 0xf2, 0x14, 0xfb, 0x29, 0xc6, 0x1c, 0x1d, 0x31, 0x34,
   0x39, 0x13, 0x19, 0xbb, 0x24, 0xfe, 0x2d, 0x11, 0x2c, 0xf9, 0x41, 0xdf,
   0x09, 0xfa, 0x0c, 0x00, 0x15, 0x2d, 0x11, 0xe6, 0x24, 0x14, 0x08, 0x7f,
   0x3e, 0x18, 0xf7, 0xc2, 0x34, 0x36, 0x09, 0x7c, 0x23, 0x2e, 0xf5, 0x99,
   0x33, 0x1c, 0x0f, 0x7f, 0x27, 0xfc, 0x26, 0xcf, 0x18, 0x3b, 0xfe, 0x0d,
   0x34, 0x0b, 0x19, 0x9c, 0xf4, 0x2f, 0x3b, 0x26, 0x23, 0x2b, 0x36, 0x90,
   0x12, 0x17, 0x0b, 0x61, 0x2d, 0xfb, 0xf4, 0x9c, 0x16, 0x15, 0x14, 0x04,
   0x37, 0xfe, 0xf3, 0xa2, 0x08, 0x26, 0x47, 0xf3, 0x46, 0xfa, 0x38, 0xdd,
   0x45, 0x4b, 0x19, 0x3f, 0xc4, 0x91, 0xa1, 0x53, 0xd3, 0x16, 0xbb, 0x0d,
   0xd4, 0xb0, 0x86, 0x1f, 0xea, 0x18, 0xc4, 0xed, 0xda, 0xc4, 0x81, 0x6b,
   0xe3, 0xca, 0xed, 0xdc, 0xfb, 0xae, 0xcc, 0x3c, 0x18, 0xec, 0xd0, 0xd1,
   0x05, 0xda, 0xa3, 0x17, 0x2a, 0x2e, 0xec, 0xce, 0xf0, 0xd7, 0xe5, 0x57,
   0x31, 0xf1, 0xc1, 0x07, 0x0b, 0xbb, 0x19, 0x42, 0x1f, 0x06, 0x1f, 0xfb,
   0x37, 0x14, 0xb9, 0x22, 0x46, 0x40, 0x14, 0xd5, 0x3b, 0xfa, 0xd5, 0x52,
   0x34, 0x3b, 0x01, 0xd4, 0xe4, 0xf1, 0xf0, 0xde, 0x02, 0xe9, 0xe2, 0x81,
   0xf1, 0x04, 0xf0, 0xdb, 0xef, 0xe8, 0xef, 0x82, 0xf0, 0xec, 0xfc, 0xdf,
   0x0c, 0xe5, 0xef, 0x99, 0x0e, 0x17, 0x01, 0x07, 0x15, 0x0f, 0x01, 0xdc,
   0x1d, 0x12, 0x06, 0xf9, 0x0b, 0x02, 0x19, 0xe1, 0x1f, 0x07, 0x12, 0xe7,
   0x04, 0xfb, 0x05, 0xf7, 0x03, 0xf6, 0xe4, 0x13, 0xf6, 0xfc, 0xf0, 0xe0,
   0x09, 0xe1, 0xfb, 0x18, 0xf4, 0x00, 0xf8, 0xc5, 0x00, 0xfa, 0xf5, 0x0f,
   0xf2, 0x0e, 0x0b, 0xd7, 0x36, 0x0b, 0xb1, 0xce, 0xd6, 0xfd, 0xe6, 0x0c,
   0x27, 0xbe, 0xff, 0xca, 0xfe, 0xfc, 0xc3, 0x1d, 0xc4, 0xf8, 0xbf, 0xb6,
   0xc0, 0xb3, 0xe7, 0xec, 0xe7, 0xd6, 0x09, 0xa2, 0xd9, 0x14, 0x1c, 0x57,
   0x0b, 0x2b, 0xd6, 0xa5, 0x3a, 0xbb, 0x3b, 0xff, 0xd1, 0xb9, 0xea, 0x8d,
   0xce, 0xe0, 0xf2, 0x0b, 0x1b, 0xf0, 0xbd, 0xfa, 0xd2, 0x17, 0x23, 0x7f,
   0x33, 0xd8, 0xbb, 0xca, 0x03, 0xf6, 0x29, 0x54, 0xda, 0xb8, 0xf2, 0xd4,
   0xb5, 0x29, 0x2b, 0x34, 0x15, 0x06, 0x07, 0xf1, 0x3d, 0x36, 0x00, 0xf6,
   0x2b, 0x16, 0x29, 0xfd, 0x1b, 0x37, 0x45, 0xf0, 0x28, 0x2d, 0x0d, 0x01,
   0x1f, 0x11, 0x05, 0xff, 0x0f, 0xfb, 0x11, 0x31, 0xf4, 0x13, 0x07, 0xc8,
   0xe3, 0x19, 0x0c, 0x38, 0xf6, 0x03, 0xed, 0x81, 0xff, 0xf3, 0x02, 0x0b,
   0xf2, 0x10, 0xfe, 0xb0, 0xdf, 0x46, 0x2e, 0xde, 0xdc, 0xe3, 0xea, 0xef,
   0xed, 0x1d, 0x1c, 0xe1, 0x09, 0xf5, 0x0e, 0x17, 0xcf, 0x12, 0x28, 0xd8,
   0xf1, 0x0f, 0xe9, 0xfd, 0xfb, 0x06, 0x1c, 0xc7, 0x0b, 0x30, 0x1d, 0x71,
   0xf3, 0x18, 0x1a, 0xd3, 0xf7, 0x11, 0x28, 0x7f, 0x24, 0x00, 0xfe, 0xe0,
   0x27, 0x0a, 0x2c, 0x72, 0x0e, 0xfc, 0xeb, 0xee, 0xf8, 0xf3, 0xf4, 0x36,
   0x00, 0xf6, 0x00, 0xbd, 0xf7, 0xf4, 0x16, 0x47, 0xf7, 0x0c, 0xec, 0xde,
   0xd8, 0xfd, 0xf0, 0x3d, 0x24, 0x1d, 0xe8, 0x12, 0xf5, 0xf4, 0x11, 0x2b,
   0x04, 0xeb, 0xdc, 0xfd, 0xfd, 0x18, 0x2a, 0x34, 0x05, 0xf9, 0x07, 0x15,
   0xfb, 0x06, 0x1f, 0x2f, 0x92, 0xcf, 0xff, 0xff, 0x04, 0x00, 0x00, 0x00,
   0x40, 0x00, 0x00, 0x00, 0x5d, 0x04, 0x00, 0x00, 0x6a, 0xff, 0xff, 0xff,
   0x4a, 0x02, 0x00, 0x00, 0x61, 0xf7, 0xff, 0xff, 0x82, 0xfa, 0xff, 0xff,
   0x98, 0xfd, 0xff, 0xff, 0x49, 0xfb, 0xff, 0xff, 0x2b, 0x14, 0x00, 0x00,
   0x8d, 0x19, 0x00, 0x00, 0x97, 0x06, 0x00, 0x00, 0x6c, 0x06, 0x00, 0x00,
   0xf1, 0x13, 0x00, 0x00, 0xb7, 0xff, 0xff, 0xff, 0x62, 0xf2, 0xff, 0xff,
   0xef, 0xff, 0xff, 0xff, 0xa2, 0xfa, 0xff, 0xff, 0xde, 0xcf, 0xff, 0xff,
   0x04, 0x00, 0x00, 0x00, 0x00, 0x02, 0x00, 0x00, 0x57, 0xec, 0x12, 0x0c,
   0x42, 0x17, 0x18, 0xfb, 0x03, 0xbb, 0xe2, 0x41, 0x51, 0xc9, 0x81, 0xd3,
   0x09, 0x05, 0x08, 0xaa, 0xe4, 0xc3, 0xc7, 0x1b, 0xb2, 0xb0, 0xbb, 0xe3,
   0x81, 0x19, 0xe9, 0x96, 0x10, 0x1b, 0xf7, 0xfd, 0x3e, 0x06, 0xde, 0x71,
   0x63, 0xd3, 0xaa, 0x73, 0xe3, 0x7f, 0x8e, 0xdd, 0xc3, 0x0e, 0x44, 0x22,
   0xe9, 0x56, 0x42, 0x1d, 0xc7, 0xa8, 0x59, 0x81, 0x68, 0x56, 0xde, 0x62,
   0x9c, 0x6f, 0xbf, 0x57, 0xbe, 0xab, 0xeb, 0xcc, 0x93, 0x58, 0x23, 0xdf,
   0x7f, 0x0b, 0xec, 0x63, 0x3a, 0xa0, 0x73, 0xeb, 0x3d, 0x22, 0xfc, 0x23,
   0x7f, 0x1f, 0x08, 0xde, 0xf6, 0x49, 0xb6, 0x0f, 0xb4, 0x3a, 0xb2, 0x0e,
   0x7f, 0xeb, 0xdd, 0xce, 0xcb, 0xe7, 0xfc, 0x07, 0x6e, 0xf0, 0xd4, 0x66,
   0x48, 0xe4, 0x0f, 0x2d, 0x60, 0x6f, 0xe1, 0x3b, 0x27, 0x0e, 0x0f, 0x7f,
   0x12, 0xd9, 0x9c, 0xdd, 0xb3, 0x69, 0x0e, 0x45, 0x3e, 0xc1, 0x44, 0xb2,
   0x95, 0x64, 0x23, 0x81, 0x55, 0xe4, 0xd2, 0xc7, 0xe6, 0xfc, 0x81, 0xce,
   0x12, 0x37, 0xbc, 0xfa, 0x07, 0xd3, 0x58, 0xaf, 0xaa, 0x36, 0xe9, 0x36,
   0x30, 0x41, 0x54, 0x0f, 0x62, 0xf0, 0x96, 0x7f, 0x44, 0xc7, 0x1c, 0x5b,
   0xe2, 0xa7, 0xa7, 0xb2, 0xfd, 0xed, 0xe6, 0x09, 0xb9, 0x52, 0x25, 0x11,
   0xe7, 0xb5, 0x10, 0xd3, 0x81, 0x26, 0x0f, 0xa0, 0xc6, 0x97, 0x7f, 0xca,
   0xfd, 0x19, 0xcd, 0x13, 0x5b, 0x41, 0x4e, 0x48, 0x01, 0x34, 0xe2, 0xa1,
   0x3e, 0xcd, 0x23, 0x62, 0x7f, 0xf5, 0xf5, 0xf4, 0xea, 0xe7, 0xe1, 0x69,
   0x3e, 0x0a, 0xda, 0x09, 0xbb, 0x39, 0xb4, 0xf6, 0xbf, 0x81, 0xf9, 0xda,
   0xad, 0x0d, 0x13, 0xe7, 0x3e, 0xdb, 0xae, 0xf1, 0x57, 0x0a, 0x35, 0xce,
   0x36, 0x2a, 0xef, 0x24, 0x38, 0xda, 0x37, 0x7f, 0xd1, 0xfe, 0x9f, 0xcf,
   0x4c, 0xf8, 0xcf, 0x90, 0x28, 0xa0, 0x81, 0xad, 0x3a, 0x28, 0xfc, 0x03,
   0x1a, 0xc7, 0x30, 0xad, 0xf5, 0xa7, 0x7f, 0x0e, 0xc2, 0x1d, 0x2e, 0x33,
   0xe3, 0xe9, 0xef, 0xe3, 0x36, 0xa0, 0x2f, 0x70, 0xf9, 0xdd, 0x12, 0xff,
   0xd0, 0xc9, 0x00, 0x27, 0xe1, 0xfe, 0xa2, 0x3a, 0x93, 0x0b, 0x7f, 0xe9,
   0x0a, 0xf9, 0xd9, 0xe6, 0xc8, 0x7f, 0x36, 0x57, 0xe0, 0xcc, 0x34, 0xb0,
   0xab, 0xd2, 0xeb, 0xf5, 0x7f, 0x1e, 0x16, 0x53, 0x09, 0x32, 0xbb, 0xff,
   0x48, 0xc4, 0xbf, 0x69, 0xf7, 0x14, 0xe1, 0xdd, 0xf3, 0x26, 0xe3, 0xd6,
   0xe0, 0xa7, 0xd2, 0xaa, 0x0a, 0x52, 0x22, 0x81, 0x02, 0x3f, 0x15, 0x17,
   0xdf, 0xb5, 0x24, 0x23, 0x11, 0xfa, 0x09, 0x7f, 0x49, 0xe1, 0xe4, 0x77,
   0xbe, 0xe6, 0x1d, 0x0b, 0xf2, 0xfa, 0x27, 0xdf, 0x07, 0x39, 0xf7, 0x65,
   0x1d, 0xff, 0xe9, 0x7f, 0xdb, 0x12, 0xa9, 0x0a, 0xaf, 0x29, 0xa6, 0x56,
   0x5c, 0xc6, 0x50, 0xc2, 0xca, 0x54, 0x72, 0x81, 0x68, 0x39, 0xc2, 0xfe,
   0x9d, 0x2c, 0xc5, 0xd1, 0xb8, 0x2c, 0x53, 0xe6, 0xad, 0x4f, 0xb7, 0x88,
   0x25, 0x27, 0x2d, 0x7f, 0x40, 0xe3, 0xde, 0x45, 0x5a, 0x15, 0xe2, 0x0c,
   0xe7, 0xe3, 0x4b, 0x67, 0xe8, 0x1f, 0x81, 0x0b, 0xec, 0x41, 0x35, 0x51,
   0xc6, 0xa3, 0xdc, 0x09, 0x81, 0x0c, 0x29, 0x92, 0x77, 0xef, 0x22, 0x57,
   0x1e, 0xe1, 0x2c, 0xd8, 0xe2, 0xf3, 0xb6, 0x29, 0xf2, 0x20, 0x17, 0x03,
   0x7f, 0x28, 0xfe, 0x56, 0xf6, 0x3c, 0x7f, 0x9b, 0xfa, 0xd0, 0xbd, 0x4f,
   0x34, 0xcc, 0x98, 0x05, 0xa4, 0x4d, 0x8f, 0xfe, 0x1c, 0x6a, 0xa6, 0x04,
   0x02, 0x81, 0x0f, 0xe9, 0xd4, 0xcf, 0x62, 0xb5, 0x62, 0x43, 0xc9, 0x5d,
   0x2c, 0x2d, 0x15, 0x35, 0x6a, 0x51, 0xd3, 0x60, 0x50, 0xb2, 0x17, 0x7f,
   0x2d, 0x07, 0xe5, 0xd1, 0xea, 0xd1, 0xff, 0xff, 0x04, 0x00, 0x00, 0x00,
   0x80, 0x00, 0x00, 0x00, 0x79, 0x00, 0x00, 0x00, 0x7d, 0x02, 0x00, 0x00,
   0xa3, 0x07, 0x00, 0x00, 0xf3, 0xfa, 0xff, 0xff, 0x0b, 0x03, 0x00, 0x00,
   0x50, 0xfc, 0xff, 0xff, 0x3a, 0xfb, 0xff, 0xff, 0x18, 0xfd, 0xff, 0xff,
   0x2b, 0x01, 0x00, 0x00, 0xad, 0x00, 0x00, 0x00, 0xb5, 0xff, 0xff, 0xff,
   0xf5, 0xfd, 0xff, 0xff, 0x0a, 0xff, 0xff, 0xff, 0xc0, 0x06, 0x00, 0x00,
   0x53, 0x02, 0x00, 0x00, 0x25, 0x00, 0x00, 0x00, 0x57, 0xff, 0xff, 0xff,
   0x1d, 0xfc, 0xff, 0xff, 0xe0, 0xfc, 0xff, 0xff, 0xda, 0xfc, 0xff, 0xff,
   0xc7, 0x05, 0x00, 0x00, 0xe2, 0x00, 0x00, 0x00, 0x7a, 0x07, 0x00, 0x00,
   0xbb, 0xff, 0xff, 0xff, 0x02, 0x02, 0x00, 0x00, 0x77, 0x02, 0x00, 0x00,
   0x96, 0xfc, 0xff, 0xff, 0x31, 0x03, 0x00, 0x00, 0x58, 0xfe, 0xff, 0xff,
   0x27, 0x08, 0x00, 0x00, 0xad, 0x02, 0x00, 0x00, 0x91, 0xff, 0xff, 0xff,
   0x76, 0xd2, 0xff, 0xff, 0x04, 0x00, 0x00, 0x00, 0x00, 0x02, 0x00, 0x00,
   0xf0, 0x09, 0xba, 0x27, 0x01, 0x00, 0x1e, 0xde, 0x34, 0xed, 0xf9, 0xd9,
   0xdc, 0xfc, 0x12, 0xe7, 0xa5, 0x00, 0x81, 0xe6, 0xc1, 0x02, 0xca, 0xdf,
   0x30, 0xe6, 0xf4, 0x12, 0xde, 0xe1, 0x0c, 0x00, 0x07, 0xec, 0x0d, 0x2c,
   0x0b, 0xd9, 0x0e, 0xd6, 0x02, 0xff, 0xf4, 0xe6, 0x1a, 0x31, 0xd5, 0xca,
   0xd4, 0x02, 0x81, 0x10, 0xe5, 0xf3, 0xbd, 0xd7, 0xfd, 0xee, 0x01, 0x23,
   0x0e, 0x1c, 0x0a, 0x24, 0xcd, 0x23, 0x03, 0x10, 0x41, 0xf1, 0x3b, 0x81,
   0xff, 0x91, 0xb7, 0x1e, 0x10, 0x0e, 0xeb, 0xd2, 0xcd, 0x29, 0xaf, 0xa5,
   0xd4, 0x13, 0x83, 0xd2, 0x2c, 0x32, 0xde, 0x38, 0x1f, 0x4b, 0x40, 0xe5,
   0x12, 0xdb, 0x81, 0xfe, 0x42, 0xc2, 0x18, 0xdf, 0x63, 0x07, 0xab, 0xac,
   0x2b, 0xb3, 0x10, 0xa6, 0xa3, 0x32, 0x0c, 0xad, 0xb6, 0x64, 0xa3, 0xa0,
   0x6a, 0x4c, 0x1c, 0x55, 0x08, 0xf5, 0x31, 0xba, 0x46, 0xcd, 0x7f, 0x9d,
   0x1e, 0x47, 0xb8, 0x2c, 0x0b, 0xcd, 0x43, 0xcb, 0x24, 0x73, 0xd3, 0x5b,
   0xf8, 0x2f, 0x9f, 0x8a, 0x7b, 0xf9, 0x44, 0x42, 0xc5, 0x08, 0x3d, 0xb2,
   0xf9, 0x43, 0x1b, 0x48, 0xf6, 0x33, 0x55, 0xb1, 0xec, 0x26, 0xaa, 0x6b,
   0x1e, 0xc8, 0x73, 0x02, 0x1a, 0x1c, 0xc7, 0x59, 0xe0, 0xe6, 0xdc, 0x3d,
   0x03, 0x9a, 0x7f, 0x49, 0x25, 0xcd, 0x24, 0x10, 0xde, 0xff, 0xc3, 0x6b,
   0xf3, 0xd6, 0xc2, 0x13, 0x70, 0x36, 0x4d, 0xf3, 0x2c, 0x12, 0xd1, 0xce,
   0x9c, 0xfc, 0xda, 0xae, 0xf1, 0x2c, 0xf6, 0xa6, 0x81, 0x75, 0x8f, 0x10,
   0x4d, 0x62, 0x0c, 0xdc, 0x41, 0x45, 0x64, 0xcc, 0xe8, 0xef, 0xd9, 0xe6,
   0x04, 0xe1, 0x12, 0xdc, 0xfc, 0xbe, 0xea, 0xfc, 0x1a, 0x19, 0x21, 0x01,
   0xd0, 0x1e, 0x81, 0x09, 0x03, 0xf0, 0xd3, 0xff, 0x24, 0xf0, 0x19, 0x02,
   0x17, 0x0e, 0x11, 0x24, 0xe9, 0xf2, 0x81, 0x03, 0x2b, 0xce, 0xe3, 0xee,
   0x2b, 0xbc, 0xfd, 0xbc, 0xda, 0xc3, 0xe7, 0xca, 0x87, 0x44, 0xea, 0xc6,
   0xd2, 0x4a, 0xbe, 0xb2, 0x03, 0x28, 0x98, 0x1c, 0x05, 0xbf, 0x22, 0x9e,
   0x46, 0xeb, 0x7f, 0x90, 0x34, 0x27, 0xfe, 0x67, 0xcf, 0xfa, 0x46, 0xfb,
   0x34, 0x27, 0x39, 0x3a, 0xc8, 0xf9, 0x8e, 0xce, 0x6a, 0xd7, 0x2e, 0x7b,
   0xca, 0xd8, 0x19, 0xd1, 0x3a, 0x77, 0xe3, 0x6d, 0x17, 0xf4, 0xd8, 0xea,
   0x16, 0xec, 0xfd, 0xf1, 0x24, 0xcd, 0x24, 0xe2, 0x08, 0xbd, 0x05, 0xbf,
   0xba, 0x28, 0x81, 0xf9, 0xce, 0x1e, 0x00, 0x0c, 0x04, 0xed, 0x01, 0xff,
   0x19, 0xdd, 0xf5, 0xec, 0x29, 0x59, 0xb5, 0x1c, 0x8b, 0x81, 0x31, 0x30,
   0xde, 0x3d, 0x17, 0xb7, 0x23, 0x1f, 0xac, 0x05, 0xf2, 0x1a, 0x29, 0xe6,
   0x44, 0x96, 0xbf, 0x2c, 0x03, 0x38, 0x86, 0x32, 0x53, 0xc8, 0xb9, 0x87,
   0xd2, 0xc0, 0x81, 0xf9, 0x2f, 0x04, 0xe5, 0x8e, 0x1c, 0xcb, 0x00, 0x10,
   0xad, 0xa8, 0x42, 0xca, 0x85, 0xc8, 0x84, 0xb1, 0xa4, 0x31, 0xb6, 0xb7,
   0xfc, 0x45, 0x1f, 0x38, 0xe9, 0xe7, 0x49, 0x1b, 0x09, 0xa4, 0x7f, 0x6e,
   0x13, 0x09, 0xd0, 0x3e, 0xa6, 0x2b, 0x77, 0x38, 0xc7, 0x6f, 0x81, 0x1a,
   0xac, 0x51, 0xbb, 0xfd, 0xeb, 0x1a, 0xf5, 0xeb, 0xdb, 0xbd, 0x12, 0x40,
   0x8e, 0xb9, 0x93, 0x42, 0xee, 0xbe, 0xea, 0x28, 0x3b, 0xce, 0xfc, 0x81,
   0xf3, 0xfc, 0xc3, 0xc0, 0xdf, 0xf2, 0x2f, 0x91, 0x8a, 0x27, 0xbc, 0x09,
   0xdd, 0x10, 0x96, 0xd6, 0x3b, 0xf6, 0xcd, 0x53, 0x07, 0xff, 0x19, 0xc9,
   0x02, 0x05, 0xf5, 0xfe, 0xf3, 0x1a, 0x29, 0xf7, 0x25, 0xf9, 0xdd, 0xef,
   0xfb, 0xdf, 0x2c, 0xf1, 0xb7, 0x02, 0x81, 0xce, 0xe7, 0x20, 0xba, 0xd2,
   0x1e, 0xfa, 0x1a, 0xff, 0xf1, 0xd7, 0x0a, 0x1a, 0x82, 0xd4, 0xff, 0xff,
   0x04, 0x00, 0x00, 0x00, 0x40, 0x00, 0x00, 0x00, 0x9f, 0xfe, 0xff, 0xff,
   0xb9, 0xfb, 0xff, 0xff, 0xf7, 0xfe, 0xff, 0xff, 0x5a, 0x00, 0x00, 0x00,
   0x16, 0x00, 0x00, 0x00, 0x38, 0x00, 0x00, 0x00, 0xbb, 0x04, 0x00, 0x00,
   0xb4, 0xfd, 0xff, 0xff, 0xe6, 0xfb, 0xff, 0xff, 0xda, 0x00, 0x00, 0x00,
   0x09, 0xfc, 0xff, 0xff, 0xbf, 0xff, 0xff, 0xff, 0x5b, 0xfc, 0xff, 0xff,
   0xab, 0xf9, 0xff, 0xff, 0xf5, 0x01, 0x00, 0x00, 0x39, 0x00, 0x00, 0x00,
   0xce, 0xd4, 0xff, 0xff, 0x04, 0x00, 0x00, 0x00, 0x80, 0x00, 0x00, 0x00,
   0x81, 0x2c, 0x2b, 0xa5, 0x0d, 0xd4, 0x1a, 0x49, 0x82, 0x71, 0x35, 0xe0,
   0x9d, 0x52, 0x1f, 0x22, 0x7f, 0xe8, 0xda, 0x76, 0x84, 0x03, 0x64, 0xd7,
   0x27, 0x9e, 0x33, 0xd5, 0x52, 0x4e, 0x4d, 0xea, 0x7e, 0x63, 0x09, 0x77,
   0xf4, 0x81, 0x7d, 0x5c, 0x57, 0x93, 0xe3, 0x81, 0x7b, 0xeb, 0x61, 0x4c,
   0xe8, 0x2b, 0x7d, 0x7e, 0x9f, 0xba, 0x6a, 0x4c, 0x40, 0xcb, 0x0d, 0xfc,
   0x35, 0x94, 0x7f, 0xd3, 0xbd, 0xe5, 0xaf, 0x86, 0xd9, 0x75, 0x9e, 0xb5,
   0xa3, 0x7f, 0x1d, 0xdf, 0x9a, 0xf9, 0xa8, 0x14, 0xe3, 0x28, 0x0a, 0xeb,
   0x79, 0x4e, 0x05, 0x34, 0xc4, 0x7f, 0xe5, 0xcd, 0xd9, 0x36, 0xf0, 0x19,
   0x81, 0xd3, 0x11, 0x83, 0x37, 0x07, 0xa3, 0xa6, 0xbc, 0xd2, 0xdf, 0x61,
   0x99, 0xe1, 0xb7, 0x5c, 0x51, 0x37, 0x0e, 0x62, 0x81, 0xe6, 0xeb, 0x23,
   0xd5, 0xa7, 0x30, 0xb3, 0x33, 0xdc, 0xe7, 0x63, 0x5a, 0xd5, 0xff, 0xff,
   0x04, 0x00, 0x00, 0x00, 0x20, 0x00, 0x00, 0x00, 0xce, 0xfa, 0xff, 0xff,
   0xe6, 0x03, 0x00, 0x00, 0x60, 0x08, 0x00, 0x00, 0x24, 0x07, 0x00, 0x00,
   0x38, 0xfa, 0xff, 0xff, 0xa0, 0x00, 0x00, 0x00, 0x32, 0xf9, 0xff, 0xff,
   0xf2, 0x05, 0x00, 0x00, 0x86, 0xd5, 0xff, 0xff, 0x04, 0x00, 0x00, 0x00,
   0x80, 0x04, 0x00, 0x00, 0x5b, 0x06, 0x13, 0xff, 0x18, 0x70, 0xec, 0x1e,
   0x61, 0x01, 0xf9, 0xce, 0x29, 0x50, 0x1f, 0xc8, 0x63, 0xd2, 0xf4, 0xee,
   0x4b, 0x7f, 0x1e, 0xf1, 0x0f, 0x2c, 0x25, 0xfc, 0x04, 0x0e, 0xc3, 0x41,
   0x16, 0x32, 0x3c, 0x32, 0x30, 0x54, 0xbb, 0xfc, 0x1c, 0x18, 0x45, 0x1a,
   0x04, 0x10, 0xaa, 0x03, 0x38, 0xd9, 0xc4, 0x0f, 0x3b, 0x61, 0x07, 0x03,
   0xe9, 0x02, 0xe7, 0xc8, 0xf3, 0x40, 0xfe, 0x04, 0x25, 0xce, 0xd0, 0xec,
   0x31, 0x49, 0xf7, 0xeb, 0x3e, 0xc8, 0xb8, 0xb4, 0x0c, 0x6f, 0xd8, 0xb9,
   0x34, 0xf1, 0xd1, 0xf2, 0x4d, 0x47, 0x21, 0xd6, 0x39, 0xa5, 0xc2, 0xd4,
   0x46, 0x7f, 0x1e, 0xeb, 0x3d, 0x1b, 0x24, 0xd5, 0x50, 0x5f, 0xb9, 0x23,
   0xf1, 0xfb, 0x12, 0x09, 0x16, 0x1e, 0xff, 0x59, 0xfc, 0x46, 0xf8, 0xfe,
   0x4f, 0x38, 0xf6, 0xfc, 0x74, 0xff, 0x41, 0x0e, 0x0e, 0x53, 0xf0, 0x26,
   0x62, 0x07, 0x27, 0x27, 0x45, 0x39, 0xeb, 0x31, 0xf9, 0x2c, 0x09, 0x26,
   0x1c, 0x72, 0xe9, 0x14, 0xec, 0x12, 0x0e, 0xeb, 0xc6, 0xd9, 0x1a, 0x33,
   0x2c, 0xe9, 0x2e, 0x0d, 0xf5, 0x10, 0xde, 0x0c, 0xe4, 0xe3, 0xeb, 0xbe,
   0xdf, 0x89, 0x0a, 0x0c, 0xd4, 0x2d, 0x23, 0x2b, 0xb7, 0xd2, 0x03, 0x48,
   0xe1, 0x4d, 0xe6, 0x34, 0x29, 0xec, 0x19, 0x4e, 0xc8, 0x73, 0x44, 0x71,
   0xd9, 0x9c, 0xbf, 0xfd, 0xaf, 0x08, 0x21, 0x67, 0xaa, 0xc5, 0xae, 0x5e,
   0x81, 0xde, 0x1b, 0xf5, 0xa0, 0xcb, 0xcd, 0x49, 0xfb, 0x45, 0x57, 0x35,
   0x97, 0xe5, 0xde, 0x2e, 0x3c, 0x96, 0xdb, 0xcb, 0x35, 0xff, 0x26, 0xa6,
   0x2e, 0x81, 0x01, 0xd4, 0xf3, 0xf4, 0x1a, 0xcb, 0x20, 0xdf, 0xd9, 0xee,
   0x26, 0x3e, 0xdd, 0xaa, 0x3e, 0x2a, 0x26, 0x6b, 0x19, 0xf7, 0xd4, 0x0c,
   0xfc, 0x50, 0x56, 0x44, 0x47, 0xeb, 0xb3, 0xe7, 0x39, 0x44, 0x09, 0x0c,
   0xe8, 0xe8, 0xc0, 0x2b, 0x27, 0xd4, 0x4f, 0x0c, 0x4a, 0x42, 0x1b, 0x50,
   0x5c, 0xdc, 0xb6, 0xe1, 0x6c, 0x4c, 0x17, 0x0c, 0x57, 0x0a, 0x4b, 0x50,
   0x68, 0xea, 0xf6, 0xf2, 0xbf, 0x16, 0x5e, 0x2d, 0xb1, 0xb7, 0xab, 0x5f,
   0xd6, 0xeb, 0x2b, 0x54, 0xce, 0xf0, 0xca, 0x23, 0xe8, 0x55, 0x09, 0x5a,
   0xe5, 0x81, 0xb9, 0x3f, 0xc8, 0x1a, 0x04, 0x29, 0xec, 0xb1, 0x1b, 0x2c,
   0x3f, 0xf3, 0xdd, 0x1d, 0x2d, 0x0d, 0xc8, 0xf9, 0x28, 0x4c, 0xea, 0x1d,
   0x12, 0xd7, 0x0b, 0xe7, 0x9b, 0x16, 0x71, 0x59, 0xe0, 0xc7, 0xe8, 0x4b,
   0xd4, 0x07, 0x44, 0x3b, 0x88, 0xa4, 0x0b, 0x3c, 0xcd, 0x61, 0x06, 0x21,
   0xb2, 0x9f, 0xa5, 0x5d, 0x6c, 0xe9, 0x0d, 0xc7, 0x47, 0x40, 0xe2, 0xef,
   0x1d, 0x0c, 0xd3, 0xd1, 0x6b, 0x50, 0x18, 0xd1, 0x42, 0x11, 0xd5, 0x07,
   0x53, 0x45, 0x21, 0xd1, 0x17, 0x2a, 0x4b, 0x34, 0x3f, 0x37, 0xd9, 0x4f,
   0x16, 0x10, 0x5a, 0x46, 0xf8, 0xe9, 0x9d, 0x2f, 0x08, 0x43, 0x35, 0x6f,
   0x53, 0x2d, 0x81, 0x32, 0x1f, 0xff, 0x12, 0xe1, 0x50, 0x1c, 0x33, 0x25,
   0x4a, 0xf4, 0x11, 0x09, 0x1a, 0x32, 0x12, 0xce, 0xf2, 0x25, 0x1a, 0xd1,
   0x43, 0xfc, 0xf6, 0xf8, 0xf3, 0x84, 0x89, 0x99, 0x41, 0x42, 0x55, 0xab,
   0xee, 0x81, 0xbb, 0xbd, 0x52, 0x5d, 0x18, 0xb3, 0x34, 0xa8, 0xa0, 0x9b,
   0xf4, 0x5e, 0x5a, 0x82, 0x1e, 0x0f, 0xe1, 0x1d, 0x3a, 0x71, 0xdf, 0xda,
   0xe6, 0xe8, 0x0e, 0x3a, 0x38, 0x5f, 0x2f, 0xd5, 0x1f, 0x21, 0xd6, 0xf7,
   0xe9, 0x17, 0xcc, 0xf3, 0x2f, 0x0f, 0xed, 0x3c, 0x38, 0x71, 0xd7, 0xc8,
   0x43, 0x25, 0x30, 0x20, 0x04, 0x57, 0x05, 0xed, 0x43, 0x31, 0xdf, 0xe3,
   0x0a, 0x2a, 0xe4, 0x07, 0x3b, 0xf5, 0xb3, 0xe1, 0x36, 0x33, 0x32, 0xc6,
   0x65, 0xbd, 0xb7, 0xbf, 0x6b, 0x7f, 0x14, 0xb8, 0x2a, 0xfa, 0x9d, 0x9a,
   0x5d, 0x7d, 0x1c, 0xef, 0xf1, 0xcb, 0xf1, 0xc8, 0x4e, 0x56, 0x07, 0x29,
   0x01, 0xcd, 0x0a, 0xd4, 0x59, 0x26, 0xe9, 0xf7, 0x45, 0xbc, 0x18, 0xf8,
   0x57, 0x1a, 0xfb, 0xd6, 0x33, 0x0f, 0xce, 0xe5, 0x2d, 0x5c, 0xf5, 0xd1,
   0x2b, 0xfa, 0x08, 0xfc, 0x67, 0x6a, 0x1c, 0xff, 0x15, 0xb4, 0xe7, 0xc2,
   0x25, 0x1f, 0xf4, 0xf3, 0xda, 0x03, 0x1c, 0x03, 0xcf, 0x28, 0xec, 0x24,
   0xd5, 0x17, 0x1a, 0x28, 0xcb, 0x24, 0x00, 0x26, 0x05, 0x22, 0xf6, 0x23,
   0xdf, 0x07, 0xcb, 0x06, 0xef, 0x34, 0x28, 0x28, 0xb7, 0xf1, 0xe2, 0x37,
   0x81, 0x27, 0x2e, 0x0b, 0xac, 0xb3, 0x07, 0x32, 0x09, 0x06, 0x17, 0x50,
   0xcb, 0xec, 0xf9, 0x01, 0x24, 0xcb, 0xcf, 0xe0, 0x5e, 0x30, 0x17, 0xdc,
   0x38, 0xd1, 0x0d, 0x0b, 0x5f, 0x36, 0xfc, 0xe0, 0x12, 0xda, 0xb8, 0xc9,
   0x34, 0x0e, 0x2c, 0xb4, 0x2d, 0x85, 0xb3, 0xa3, 0x34, 0x2d, 0x21, 0xce,
   0x3c, 0x9e, 0x8b, 0xb7, 0x6c, 0x1d, 0x0c, 0x81, 0x3f, 0xd3, 0xb7, 0xc3,
   0x52, 0x2e, 0xea, 0xc3, 0x42, 0xca, 0xfc, 0x13, 0x34, 0x5d, 0xe7, 0xf2,
   0x1c, 0xce, 0xc9, 0xd6, 0x29, 0x39, 0x03, 0x19, 0x2e, 0xd6, 0xe3, 0xd9,
   0x23, 0x2a, 0xc0, 0xcf, 0x41, 0xd6, 0xfa, 0xd6, 0x5b, 0x2e, 0xd0, 0x04,
   0x0c, 0x1a, 0xf0, 0xec, 0x11, 0x23, 0xef, 0xe5, 0x2b, 0xce, 0xe2, 0xd0,
   0x58, 0x4e, 0xc7, 0x23, 0xf7, 0xc8, 0xe4, 0x02, 0x3c, 0x06, 0x26, 0xc0,
   0x14, 0xfe, 0xc4, 0xd1, 0x13, 0xff, 0xfc, 0xc8, 0x4b, 0xb8, 0xbb, 0xf7,
   0x0a, 0x2f, 0x29, 0xca, 0xfe, 0x07, 0x2a, 0x0f, 0xe3, 0x24, 0xfa, 0x24,
   0xc4, 0xec, 0x15, 0x38, 0xe6, 0x19, 0xd9, 0x16, 0xf9, 0x2d, 0x42, 0xdd,
   0xef, 0xce, 0xc4, 0x13, 0x51, 0xca, 0x19, 0xfb, 0x7f, 0x36, 0x3b, 0xc1,
   0x45, 0x01, 0x1a, 0xde, 0x46, 0x24, 0xff, 0xd5, 0x46, 0x21, 0x1d, 0xcf,
   0x39, 0x70, 0x0c, 0xf0, 0xd4, 0x1f, 0x6d, 0x60, 0xf9, 0x83, 0xb4, 0x73,
   0x13, 0x0b, 0x26, 0x20, 0xbc, 0x94, 0x0a, 0x11, 0xc6, 0x4f, 0x67, 0x68,
   0xf5, 0xd6, 0xa6, 0x7f, 0x07, 0xde, 0xdd, 0x27, 0xf1, 0xda, 0x1b, 0xe0,
   0x09, 0xfe, 0x08, 0xd5, 0xd8, 0xe2, 0x0c, 0x1b, 0xf9, 0x2a, 0xdc, 0x31,
   0x1a, 0xcd, 0x1f, 0xeb, 0xc6, 0x39, 0x5d, 0x0d, 0xcc, 0xd2, 0xe5, 0x46,
   0xa9, 0x46, 0x1e, 0x0d, 0xac, 0xda, 0x0b, 0xf3, 0xe0, 0x53, 0x1c, 0x05,
   0xbf, 0xb1, 0xce, 0x13, 0xd9, 0x46, 0x09, 0x2d, 0xb5, 0xf8, 0xf2, 0x0a,
   0x07, 0x07, 0xd9, 0xe4, 0xf8, 0xdb, 0x0c, 0x20, 0xb5, 0xc0, 0xb1, 0xf2,
   0x0c, 0x33, 0xfb, 0xa6, 0xb1, 0xf2, 0xc9, 0xd5, 0xeb, 0xcd, 0xea, 0xbe,
   0x02, 0xee, 0x2a, 0xbb, 0xb0, 0xe2, 0xf9, 0xdf, 0xda, 0xdf, 0xd7, 0xcd,
   0x02, 0xcf, 0xa7, 0xf7, 0xb2, 0xf6, 0xb5, 0xdd, 0xd4, 0x15, 0x55, 0x0a,
   0xce, 0xe4, 0x9b, 0xce, 0xcd, 0xbe, 0xd4, 0xec, 0xd4, 0xea, 0xb0, 0x81,
   0xb2, 0xff, 0x1d, 0x87, 0x63, 0xcf, 0xca, 0xec, 0x3a, 0x64, 0xfe, 0x26,
   0x3d, 0xd5, 0xef, 0xf3, 0x56, 0x68, 0xe9, 0xfe, 0x15, 0xeb, 0xce, 0xf2,
   0x44, 0x2f, 0x0c, 0x11, 0x08, 0x16, 0x42, 0x55, 0xf6, 0x40, 0xe3, 0x2f,
   0x43, 0x13, 0x26, 0x1b, 0x1b, 0x13, 0xed, 0x56, 0x27, 0x25, 0x5f, 0x72,
   0xdb, 0x14, 0x81, 0x2c, 0xf6, 0xfb, 0x0d, 0xfb, 0x26, 0x6a, 0xf4, 0xce,
   0x29, 0xd4, 0xec, 0x0a, 0x42, 0x0e, 0xef, 0xd3, 0x16, 0xd5, 0x1a, 0x03,
   0xed, 0x4c, 0xe0, 0x21, 0xf2, 0x1b, 0x1c, 0x13, 0x10, 0x18, 0xf2, 0x13,
   0xfe, 0x2c, 0xed, 0xff, 0xca, 0xde, 0xd6, 0xeb, 0xb8, 0x1d, 0x1d, 0x10,
   0xca, 0xe8, 0x07, 0x12, 0x06, 0xa9, 0x81, 0xa0, 0x06, 0x35, 0x63, 0x9f,
   0x20, 0xcc, 0xb8, 0xdc, 0x43, 0x07, 0x31, 0xe3, 0x21, 0xb2, 0xbe, 0x8e,
   0x3e, 0x36, 0x4d, 0x93, 0xec, 0x1c, 0x1d, 0x38, 0xcd, 0xca, 0xd2, 0x4f,
   0xe6, 0x19, 0x34, 0x2c, 0xd6, 0xd9, 0xa2, 0x27, 0x11, 0x13, 0x55, 0x60,
   0xf1, 0xda, 0x9e, 0x3e, 0x28, 0xc6, 0x16, 0xf6, 0x40, 0x7f, 0x12, 0xb6,
   0x63, 0xf8, 0xfd, 0xfb, 0x1b, 0x46, 0xe2, 0xb3, 0x5d, 0x0e, 0xfe, 0xb4,
   0x6d, 0x79, 0x04, 0xdc, 0xf2, 0x22, 0xd4, 0x08, 0x2e, 0x46, 0xd0, 0xff,
   0x27, 0xee, 0xeb, 0xcf, 0x4b, 0x2a, 0xe3, 0xd7, 0x19, 0xea, 0xf2, 0xe4,
   0x0f, 0x3a, 0xcb, 0xdf, 0x1d, 0xc0, 0xe6, 0xcc, 0x09, 0x52, 0xd8, 0xd4,
   0xfa, 0xb9, 0xc7, 0xc9, 0x45, 0x55, 0xc9, 0x06, 0xf7, 0x1b, 0xe8, 0xcc,
   0x31, 0x2f, 0xfe, 0x11, 0x12, 0xda, 0xff, 0xff, 0x04, 0x00, 0x00, 0x00,
   0x40, 0x00, 0x00, 0x00, 0xf3, 0x02, 0x00, 0x00, 0x60, 0xff, 0xff, 0xff,
   0x42, 0xfd, 0xff, 0xff, 0x8f, 0x01, 0x00, 0x00, 0x59, 0x02, 0x00, 0x00,
   0x1e, 0x05, 0x00, 0x00, 0x1f, 0x02, 0x00, 0x00, 0x0d, 0x01, 0x00, 0x00,
   0x34, 0x01, 0x00, 0x00, 0x0f, 0xfd, 0xff, 0xff, 0x06, 0xff, 0xff, 0xff,
   0x15, 0xff, 0xff, 0xff, 0x62, 0xfd, 0xff, 0xff, 0x14, 0x05, 0x00, 0x00,
   0x74, 0x02, 0x00, 0x00, 0x08, 0x00, 0x00, 0x00, 0x5e, 0xda, 0xff, 0xff,
   0x04, 0x00, 0x00, 0x00, 0x00, 0x02, 0x00, 0x00, 0xb3, 0x02, 0xca, 0x07,
   0x56, 0xaf, 0x81, 0xb1, 0x07, 0x18, 0xc5, 0x0e, 0xde, 0xee, 0x2b, 0x12,
   0xeb, 0xb9, 0x55, 0x39, 0x42, 0x9d, 0xe7, 0xbb, 0x81, 0xf6, 0x26, 0x28,
   0x37, 0x2d, 0x34, 0xc8, 0xb9, 0x57, 0x19, 0x36, 0x11, 0x35, 0xe2, 0xf6,
   0x9e, 0x41, 0x37, 0x1c, 0xbe, 0x0c, 0x7f, 0xb7, 0x39, 0x81, 0x64, 0xd3,
   0x78, 0xe0, 0x39, 0x17, 0x16, 0xf2, 0xa7, 0x73, 0x43, 0xf3, 0xc4, 0xd0,
   0xd1, 0xdb, 0x55, 0x32, 0x2a, 0x64, 0x09, 0x0f, 0x81, 0x21, 0xee, 0x3f,
   0xf5, 0x10, 0xd7, 0xfd, 0xad, 0x09, 0xe8, 0xed, 0xe4, 0xc3, 0xb4, 0xa8,
   0x18, 0xc0, 0x92, 0x74, 0x03, 0x92, 0x7f, 0xbd, 0xcc, 0xe3, 0x96, 0xe6,
   0xc1, 0x08, 0x81, 0x0f, 0x3e, 0x13, 0xd0, 0xc8, 0x76, 0x95, 0x76, 0x09,
   0xdd, 0xb1, 0xe8, 0x09, 0xf2, 0x28, 0x81, 0x1b, 0x02, 0x83, 0x89, 0x4d,
   0xcd, 0xf2, 0x4e, 0x88, 0x7c, 0xbf, 0x2d, 0x73, 0xe4, 0x7d, 0xe4, 0xea,
   0x81, 0x7f, 0xf2, 0xd7, 0xc2, 0x7b, 0xbc, 0xdf, 0x02, 0x7f, 0x2c, 0x45,
   0xd1, 0x33, 0x19, 0x7f, 0x72, 0x5e, 0xe5, 0x94, 0x1d, 0xe2, 0xa9, 0x06,
   0x2a, 0x5e, 0xed, 0x7f, 0x78, 0xe4, 0xbe, 0xeb, 0xcd, 0xe2, 0x53, 0x17,
   0x91, 0x59, 0x2b, 0xcd, 0x9a, 0x53, 0xac, 0x74, 0x7f, 0x32, 0x95, 0x87,
   0x87, 0xe5, 0xee, 0x63, 0xe6, 0x24, 0x2e, 0xa6, 0x0d, 0x7f, 0x18, 0xa0,
   0xa0, 0xc7, 0x62, 0xf3, 0xd7, 0xf5, 0xd6, 0xbb, 0x95, 0x01, 0xcd, 0x32,
   0xdc, 0x95, 0x7e, 0x08, 0x22, 0xdb, 0xdf, 0x83, 0x02, 0xed, 0xb8, 0x67,
   0xcc, 0xf6, 0xd7, 0x81, 0x63, 0x7f, 0xb4, 0x57, 0x74, 0x58, 0x40, 0x01,
   0x93, 0x58, 0xe1, 0x5f, 0x97, 0xf3, 0x20, 0x5d, 0x2d, 0xd2, 0x28, 0x1d,
   0x23, 0x81, 0xd0, 0x19, 0xfd, 0xc5, 0xba, 0x2f, 0xd0, 0xd1, 0x0a, 0x28,
   0x02, 0xf2, 0x44, 0xe8, 0x58, 0xe8, 0x05, 0x10, 0x81, 0xab, 0x01, 0x22,
   0xb1, 0x1d, 0xed, 0xb7, 0x01, 0x40, 0xdd, 0x3a, 0xc3, 0xef, 0xbb, 0xb1,
   0x7f, 0xd6, 0x56, 0x23, 0x0e, 0xd5, 0x14, 0x5a, 0xee, 0x72, 0xcf, 0x5e,
   0x1e, 0x32, 0x39, 0x7c, 0x67, 0x07, 0x2b, 0x28, 0xa8, 0xec, 0x9f, 0x7f,
   0x9a, 0x27, 0xf1, 0x77, 0x6a, 0x60, 0x26, 0x93, 0xd6, 0xfa, 0xdb, 0x7f,
   0xee, 0xf4, 0xf5, 0x3e, 0xe3, 0x4d, 0x0f, 0x12, 0x3c, 0xf5, 0x18, 0xc1,
   0x81, 0xf7, 0x0f, 0x00, 0xb9, 0xd8, 0x60, 0xd9, 0xfd, 0x09, 0x1a, 0xe1,
   0xe9, 0xbb, 0x7f, 0x08, 0x3c, 0xba, 0x55, 0xc1, 0x59, 0xd9, 0xd5, 0x23,
   0xf3, 0xb2, 0xae, 0xe1, 0x02, 0x81, 0xe3, 0xce, 0xf1, 0x02, 0xcd, 0xc8,
   0x18, 0xb3, 0x76, 0xf9, 0x3c, 0x3b, 0x2c, 0x3a, 0xe0, 0x71, 0x6e, 0x3d,
   0xf5, 0x4d, 0x38, 0xba, 0xbb, 0x23, 0x81, 0x37, 0x51, 0xc1, 0xc5, 0x12,
   0x97, 0x39, 0xe3, 0x33, 0x7f, 0x22, 0x3b, 0xe3, 0xd3, 0x28, 0xe3, 0xfd,
   0x70, 0x6a, 0x28, 0x61, 0x18, 0x27, 0x38, 0x5b, 0x3e, 0x7f, 0xef, 0xa4,
   0xf4, 0x7e, 0xb6, 0xf5, 0x0e, 0x4c, 0x3d, 0x0b, 0x29, 0xd6, 0x31, 0xc7,
   0x25, 0x81, 0x49, 0x2b, 0xb4, 0xc7, 0xdc, 0x4a, 0x58, 0x81, 0x5c, 0xff,
   0xb8, 0xfe, 0x4e, 0x3e, 0x2f, 0xfd, 0x60, 0xdb, 0xe5, 0xb6, 0xf4, 0x0a,
   0x6c, 0x46, 0x2e, 0x48, 0xeb, 0x5b, 0xfc, 0x52, 0x0d, 0x64, 0x4f, 0x06,
   0x21, 0x7f, 0xf4, 0x57, 0x06, 0x1b, 0x28, 0x1d, 0xf6, 0xd6, 0x55, 0x0c,
   0xee, 0xe0, 0xe7, 0x18, 0x24, 0xd3, 0x7f, 0x0c, 0xea, 0x17, 0xd7, 0x0e,
   0x3b, 0xa2, 0x81, 0xd7, 0x05, 0xf0, 0xbb, 0x29, 0xf7, 0xdf, 0x22, 0xbb,
   0xbb, 0xa2, 0x24, 0x19, 0x1c, 0x15, 0x81, 0x8b, 0x0d, 0x88, 0xce, 0x37,
   0x18, 0xbb, 0xed, 0x0d, 0x6a, 0xdc, 0xff, 0xff, 0x04, 0x00, 0x00, 0x00,
   0x80, 0x00, 0x00, 0x00, 0xfb, 0x01, 0x00, 0x00, 0x1d, 0xfe, 0xff, 0xff,
   0xee, 0xfc, 0xff, 0xff, 0x89, 0xff, 0xff, 0xff, 0xe3, 0x01, 0x00, 0x00,
   0x9c, 0x01, 0x00, 0x00, 0xb5, 0x01, 0x00, 0x00, 0xe7, 0xff, 0xff, 0xff,
   0x4c, 0xfe, 0xff, 0xff, 0x17, 0xfd, 0xff, 0xff, 0xf9, 0xfc, 0xff, 0xff,
   0x0a, 0x03, 0x00, 0x00, 0x8a, 0xff, 0xff, 0xff, 0xac, 0x01, 0x00, 0x00,
   0xec, 0xfd, 0xff, 0xff, 0x02, 0xff, 0xff, 0xff, 0xc5, 0x00, 0x00, 0x00,
   0xe9, 0x04, 0x00, 0x00, 0x13, 0x01, 0x00, 0x00, 0x0f, 0x03, 0x00, 0x00,
   0x18, 0x04, 0x00, 0x00, 0x55, 0x00, 0x00, 0x00, 0xfc, 0xfd, 0xff, 0xff,
   0x6c, 0x01, 0x00, 0x00, 0xe2, 0xff, 0xff, 0xff, 0x4c, 0x02, 0x00, 0x00,
   0xcb, 0xfc, 0xff, 0xff, 0x1d, 0xfe, 0xff, 0xff, 0xe8, 0xfe, 0xff, 0xff,
   0x85, 0xff, 0xff, 0xff, 0x1f, 0x00, 0x00, 0x00, 0xb1, 0x02, 0x00, 0x00,
   0xf6, 0xdc, 0xff, 0xff, 0x04, 0x00, 0x00, 0x00, 0x00, 0x02, 0x00, 0x00,
   0x6f, 0xb4, 0xa0, 0xc5, 0xb2, 0x77, 0x1c, 0xd3, 0x8d, 0xf1, 0xa6, 0xde,
   0xdb, 0x0d, 0xc7, 0xf8, 0xaa, 0xed, 0xde, 0xea, 0x18, 0xe2, 0x3e, 0xf1,
   0x60, 0xce, 0xe0, 0xb5, 0x81, 0x16, 0x16, 0x04, 0xea, 0x06, 0x3a, 0x00,
   0x3c, 0x81, 0xc1, 0x07, 0x06, 0x61, 0x1e, 0xda, 0x0c, 0xd6, 0x38, 0x06,
   0x31, 0xe9, 0x64, 0x2b, 0xe3, 0xf1, 0xc4, 0x3c, 0xe0, 0x30, 0x10, 0x49,
   0x71, 0xe8, 0xa5, 0x16, 0x1f, 0x0c, 0xfe, 0x47, 0x26, 0x29, 0x25, 0xfa,
   0x0d, 0x0b, 0x2e, 0x2c, 0xfe, 0x37, 0xfb, 0xeb, 0x43, 0xd8, 0x0e, 0xfc,
   0xca, 0xc2, 0xee, 0xe4, 0x81, 0xe4, 0x15, 0x0f, 0xd5, 0xd3, 0x08, 0x21,
   0xcd, 0xf5, 0xcc, 0xab, 0x0b, 0x72, 0xe8, 0xfc, 0x01, 0xc8, 0xda, 0x02,
   0xc4, 0x14, 0xc9, 0xe9, 0x09, 0xfc, 0xe7, 0x09, 0x53, 0xc3, 0x10, 0xea,
   0xf6, 0x81, 0xc9, 0x99, 0xbe, 0xe0, 0x34, 0xd0, 0xf7, 0x0f, 0xf5, 0x14,
   0x2f, 0xd3, 0xe6, 0x2b, 0x3c, 0xee, 0x0f, 0x09, 0xf8, 0x2e, 0x11, 0x11,
   0x12, 0xf9, 0x06, 0x35, 0x81, 0xd8, 0xd5, 0x00, 0xd7, 0x23, 0x16, 0xdc,
   0x38, 0x00, 0xef, 0x03, 0xc2, 0xef, 0x2d, 0x02, 0xd4, 0x9c, 0x21, 0xe7,
   0xf3, 0xff, 0xd8, 0x11, 0x03, 0x00, 0x2d, 0xdb, 0xce, 0x6d, 0xee, 0xdf,
   0x7f, 0xe2, 0x25, 0xba, 0xfc, 0xf0, 0xd9, 0x41, 0x03, 0x30, 0xc5, 0xbb,
   0xae, 0xaf, 0xaf, 0xe0, 0xb6, 0xa7, 0xeb, 0x01, 0x1d, 0x57, 0x40, 0xaa,
   0x1f, 0xbe, 0xfd, 0x52, 0xa2, 0x05, 0x01, 0x81, 0x81, 0x1b, 0xeb, 0x57,
   0x16, 0x74, 0x21, 0x4b, 0x37, 0x99, 0xf8, 0xc5, 0x0c, 0xf8, 0x0b, 0x1c,
   0xf5, 0x09, 0x1c, 0xcb, 0xb2, 0x18, 0xaa, 0xa4, 0xec, 0xc5, 0xe3, 0xea,
   0xd7, 0x21, 0xbc, 0x16, 0x7f, 0x3e, 0x73, 0xc6, 0x6d, 0xd7, 0xbd, 0xe9,
   0xe3, 0x0e, 0xe5, 0xf2, 0x07, 0x0a, 0xfa, 0x37, 0x02, 0x65, 0xcb, 0x37,
   0x8d, 0xf1, 0xf9, 0x0c, 0xc7, 0xf0, 0x23, 0x33, 0x07, 0x4c, 0x4f, 0x0b,
   0x2e, 0xd4, 0x33, 0x1d, 0xf4, 0x9b, 0x0a, 0xdf, 0xaf, 0x14, 0x7f, 0x21,
   0xf2, 0xf0, 0x21, 0xcd, 0xf6, 0xdf, 0xf8, 0xe9, 0xfb, 0x21, 0xf2, 0xe6,
   0xf7, 0xd7, 0xea, 0xdd, 0xe7, 0xd1, 0xdf, 0x11, 0x7f, 0x00, 0xf9, 0xfd,
   0xf0, 0xfd, 0xe5, 0x02, 0x0c, 0x21, 0xc6, 0xd5, 0x22, 0x1b, 0x32, 0xf7,
   0x06, 0x38, 0xe9, 0x21, 0x2c, 0x1b, 0x18, 0x1b, 0x14, 0x10, 0x23, 0x22,
   0x21, 0xf3, 0xe8, 0x0a, 0x7f, 0xf0, 0x19, 0x14, 0xff, 0xe3, 0x05, 0x02,
   0xf4, 0x4c, 0x30, 0xe9, 0x17, 0x50, 0x42, 0x1e, 0x4f, 0x52, 0xd0, 0x2a,
   0xd5, 0x98, 0x16, 0x3c, 0xbc, 0x3f, 0x7f, 0x11, 0x65, 0xbb, 0x0b, 0x68,
   0xa5, 0xe5, 0x9b, 0xde, 0x00, 0xf3, 0x55, 0xd8, 0xb7, 0x07, 0x43, 0x66,
   0xb9, 0x9a, 0xae, 0xd6, 0x1d, 0x1d, 0x1a, 0xfd, 0x56, 0x6b, 0xf8, 0xa1,
   0x04, 0xf1, 0x5e, 0x27, 0xd2, 0x3c, 0x6a, 0xc2, 0x85, 0x78, 0xe2, 0x61,
   0x1c, 0x7d, 0xe8, 0x30, 0x78, 0x81, 0xa5, 0x91, 0x28, 0x20, 0x48, 0x09,
   0x26, 0x2b, 0xee, 0xf3, 0x14, 0x07, 0x30, 0x28, 0xeb, 0xfe, 0x03, 0x03,
   0x00, 0x81, 0xda, 0xec, 0x50, 0xfa, 0x32, 0x1f, 0xee, 0x0c, 0xfb, 0xef,
   0xd3, 0x7e, 0xe7, 0x01, 0xb3, 0x35, 0x9b, 0xa7, 0xca, 0xe3, 0x1c, 0xa9,
   0x3e, 0xfc, 0xac, 0xdd, 0x24, 0xe4, 0xbf, 0xd7, 0x92, 0x63, 0x1a, 0x99,
   0xe2, 0xf9, 0xc0, 0x7f, 0x44, 0x3b, 0xd2, 0xec, 0x36, 0xed, 0xf1, 0xd7,
   0xb2, 0x09, 0xa1, 0xd3, 0xfd, 0x1e, 0xd0, 0xa8, 0xfb, 0x39, 0xd5, 0x23,
   0xd3, 0xd8, 0x06, 0xac, 0x11, 0x57, 0xe0, 0xe6, 0xcb, 0x52, 0xf8, 0xe4,
   0x7f, 0x07, 0xc4, 0x79, 0x28, 0xd9, 0xfc, 0x3f, 0x02, 0xdf, 0xff, 0xff,
   0x04, 0x00, 0x00, 0x00, 0x40, 0x00, 0x00, 0x00, 0xae, 0xf7, 0xff, 0xff,
   0xc9, 0x02, 0x00, 0x00, 0x14, 0x02, 0x00, 0x00, 0xe5, 0xf8, 0xff, 0xff,
   0x54, 0xff, 0xff, 0xff, 0x09, 0xfb, 0xff, 0xff, 0xb9, 0xfe, 0xff, 0xff,
   0x61, 0xfb, 0xff, 0xff, 0xe3, 0xfe, 0xff, 0xff, 0x69, 0xfc, 0xff, 0xff,
   0x1f, 0x01, 0x00, 0x00, 0x4e, 0x00, 0x00, 0x00, 0xde, 0x01, 0x00, 0x00,
   0x0a, 0x02, 0x00, 0x00, 0xe1, 0xfc, 0xff, 0xff, 0x2d, 0xfb, 0xff, 0xff,
   0x4e, 0xdf, 0xff, 0xff, 0x04, 0x00, 0x00, 0x00, 0x80, 0x00, 0x00, 0x00,
   0xe4, 0x37, 0x0a, 0xe3, 0x26, 0xef, 0x4c, 0x1e, 0x81, 0x9b, 0xce, 0xb2,
   0x42, 0xfe, 0x5a, 0x43, 0xaa, 0x68, 0x04, 0xc0, 0x1a, 0xf5, 0x2f, 0xc8,
   0xb0, 0x53, 0x26, 0xfe, 0x7f, 0x4f, 0x2a, 0x31, 0xbe, 0xe7, 0x49, 0xc7,
   0x54, 0x81, 0xe4, 0xc9, 0x0e, 0xd4, 0x02, 0x30, 0xf6, 0xda, 0xc1, 0x21,
   0x21, 0x75, 0xb2, 0xdd, 0xea, 0x05, 0xf3, 0xca, 0x81, 0xe3, 0xba, 0xa0,
   0x3a, 0x64, 0x54, 0x31, 0xb2, 0x81, 0x74, 0x60, 0x1e, 0xea, 0xa6, 0xfe,
   0xbc, 0x32, 0x4b, 0x7a, 0x9c, 0x1f, 0x00, 0xfc, 0x36, 0x9d, 0x27, 0x3d,
   0xd7, 0xc0, 0xff, 0x01, 0x7f, 0x09, 0x4f, 0x42, 0xf2, 0x3e, 0xb6, 0x0b,
   0x0a, 0x24, 0x3a, 0xd2, 0x4c, 0x81, 0xea, 0xc7, 0x0a, 0x81, 0xec, 0x49,
   0x04, 0xe7, 0xb0, 0xf2, 0x4f, 0xbe, 0xdf, 0x0c, 0xb4, 0x09, 0xcf, 0xea,
   0x05, 0x7f, 0x18, 0xd4, 0x24, 0x1b, 0xf4, 0x3e, 0xda, 0xdf, 0xff, 0xff,
   0x04, 0x00, 0x00, 0x00, 0x20, 0x00, 0x00, 0x00, 0xd5, 0xfe, 0xff, 0xff,
   0x91, 0x02, 0x00, 0x00, 0x02, 0x02, 0x00, 0x00, 0xf6, 0xfb, 0xff, 0xff,
   0x39, 0x00, 0x00, 0x00, 0x04, 0xfc, 0xff, 0xff, 0x14, 0x01, 0x00, 0x00,
   0x10, 0xfa, 0xff, 0xff, 0x06, 0xe0, 0xff, 0xff, 0x04, 0x00, 0x00, 0x00,
   0x00, 0x03, 0x00, 0x00, 0x7d, 0x14, 0xd0, 0x5f, 0x8f, 0x84, 0xbe, 0x42,
   0xf2, 0x7f, 0xae, 0x0a, 0xa4, 0x53, 0x18, 0x1d, 0x4b, 0x37, 0xeb, 0x72,
   0x90, 0xb0, 0xb2, 0x2d, 0xdb, 0x35, 0x0c, 0x1a, 0xd9, 0x2d, 0xf6, 0x50,
   0x95, 0xf6, 0xf5, 0xf2, 0x25, 0x4d, 0x27, 0x40, 0xf3, 0xd9, 0x11, 0xb8,
   0x1e, 0x0b, 0xc1, 0x27, 0xea, 0x41, 0x25, 0x3d, 0xfd, 0xd9, 0x63, 0xc6,
   0xe8, 0x65, 0x39, 0x0e, 0xfa, 0xee, 0x40, 0xe3, 0x15, 0x51, 0xf9, 0xe2,
   0x15, 0xb7, 0x40, 0xec, 0x01, 0x04, 0x56, 0x32, 0xfc, 0xb1, 0x3d, 0xb0,
   0x5a, 0xfd, 0x1a, 0xdc, 0x20, 0x81, 0xff, 0x08, 0x3c, 0xea, 0x3d, 0xfb,
   0x28, 0xbf, 0x2f, 0x9a, 0xc3, 0xb5, 0x19, 0xda, 0x31, 0x7f, 0x15, 0x24,
   0x04, 0xe4, 0x1f, 0xd0, 0x14, 0x29, 0x06, 0x17, 0xd1, 0xa3, 0xf0, 0xdb,
   0x39, 0x5d, 0x33, 0xfe, 0x31, 0xfe, 0x16, 0x40, 0xff, 0xf9, 0xee, 0x25,
   0x10, 0xf0, 0x19, 0x3d, 0xeb, 0x1b, 0x09, 0x1c, 0x1f, 0x02, 0xce, 0x29,
   0x16, 0x16, 0x11, 0x05, 0x0e, 0xc4, 0x89, 0x2d, 0x0a, 0x17, 0x96, 0xff,
   0x09, 0x04, 0xd4, 0xff, 0x01, 0x9b, 0xc2, 0x19, 0xe4, 0xf0, 0x0d, 0x36,
   0xdd, 0x00, 0x2c, 0xfe, 0xc1, 0x44, 0xfa, 0x13, 0xf1, 0xcb, 0xc8, 0x3e,
   0x13, 0xb1, 0x1c, 0xff, 0xe1, 0x1f, 0xb5, 0x30, 0xfe, 0x32, 0xe7, 0xab,
   0xa2, 0xec, 0x81, 0x16, 0x03, 0xf0, 0x16, 0xff, 0x0a, 0x2f, 0xc2, 0xeb,
   0x0a, 0xee, 0xc9, 0xe5, 0x1c, 0x15, 0xfa, 0x31, 0xdf, 0xf6, 0xdc, 0xf5,
   0x16, 0x12, 0xf7, 0x20, 0xf5, 0xc5, 0x24, 0xf3, 0xfc, 0x7f, 0x27, 0x25,
   0x24, 0xe1, 0x0f, 0xf4, 0x1a, 0x57, 0x13, 0xfd, 0x0d, 0xdd, 0x0a, 0xf2,
   0x0f, 0x4e, 0x35, 0xd4, 0x47, 0x62, 0x00, 0x3d, 0xb9, 0xaa, 0x0e, 0x06,
   0x10, 0x11, 0xfd, 0x43, 0x06, 0xbc, 0x03, 0xf4, 0x0a, 0x1d, 0xcc, 0x7f,
   0xe0, 0xd7, 0xd3, 0xe5, 0x1c, 0x23, 0x12, 0x4b, 0xdc, 0x08, 0xd5, 0x2b,
   0x16, 0x08, 0xe9, 0x5b, 0xcd, 0xa1, 0xdc, 0xcd, 0x51, 0xeb, 0xab, 0x3c,
   0xc5, 0xf0, 0xc2, 0xe3, 0xfd, 0xe0, 0x15, 0xbd, 0x46, 0xca, 0x55, 0x99,
   0x0c, 0x07, 0x2f, 0x1a, 0xf5, 0x47, 0x23, 0x12, 0xe2, 0x38, 0x11, 0x97,
   0xf3, 0x22, 0x7f, 0xbd, 0xd6, 0x0c, 0x3a, 0xf9, 0x5d, 0x7a, 0x59, 0x95,
   0x61, 0x11, 0x1e, 0x11, 0xf7, 0xd8, 0x07, 0xce, 0x4c, 0x44, 0xfa, 0x47,
   0x25, 0x2d, 0x5d, 0xbc, 0x6f, 0x18, 0x00, 0x67, 0x3b, 0xff, 0x17, 0xb4,
   0x4b, 0xea, 0x15, 0xfe, 0xde, 0xd7, 0x16, 0xc5, 0x4f, 0x57, 0xfb, 0x40,
   0xe4, 0xf7, 0x0b, 0xfa, 0x5e, 0x08, 0x0e, 0x46, 0xf4, 0x12, 0xb3, 0x03,
   0x69, 0xfa, 0xbe, 0x07, 0xd1, 0x11, 0xc2, 0xdb, 0x7f, 0xec, 0x0a, 0x19,
   0xe6, 0xba, 0xb3, 0x02, 0xce, 0xeb, 0xca, 0xf3, 0x16, 0x10, 0xcb, 0xcb,
   0xe5, 0xd2, 0xfc, 0xfe, 0x36, 0xfe, 0xfe, 0x1d, 0xf6, 0xc8, 0xf0, 0xca,
   0xf4, 0xa8, 0xd5, 0x35, 0xa8, 0x0d, 0x48, 0x01, 0x39, 0x24, 0x6f, 0x86,
   0xdb, 0xbc, 0x3a, 0xbe, 0xf8, 0x0a, 0xf9, 0x04, 0x0b, 0xfb, 0x7f, 0xd3,
   0x70, 0x35, 0x77, 0xbe, 0xb4, 0xd6, 0xfd, 0x21, 0xde, 0xe7, 0x0b, 0xe3,
   0x9f, 0xeb, 0xe7, 0x13, 0xbd, 0xe9, 0x24, 0xeb, 0xd6, 0xad, 0xda, 0xa7,
   0x22, 0x1c, 0x0b, 0x32, 0xdc, 0x0f, 0x46, 0xef, 0x46, 0x7f, 0x12, 0xcf,
   0x25, 0xcb, 0x4d, 0xe8, 0xee, 0x18, 0x0a, 0xef, 0xc5, 0xcc, 0x4b, 0x25,
   0x41, 0x2e, 0x2b, 0x08, 0x2b, 0x10, 0x00, 0x28, 0xfa, 0x81, 0x3d, 0xf8,
   0xe7, 0x23, 0x09, 0x17, 0xd6, 0x82, 0x1b, 0xcb, 0x5e, 0x44, 0x04, 0x13,
   0x11, 0xd7, 0x06, 0x01, 0xea, 0xb6, 0xec, 0xe2, 0x1d, 0x20, 0xe4, 0x41,
   0xbe, 0xcf, 0x0a, 0x0f, 0xc0, 0xd0, 0xf2, 0x0a, 0x25, 0xdf, 0xe8, 0x07,
   0xd6, 0x09, 0xbc, 0x46, 0xd1, 0xce, 0x5e, 0x02, 0xcc, 0xf3, 0x52, 0x8d,
   0xb4, 0x2c, 0xfe, 0xb0, 0xaf, 0xeb, 0xdf, 0x27, 0xfc, 0xca, 0xff, 0xef,
   0x30, 0x00, 0x41, 0xe3, 0x0a, 0x51, 0x26, 0x20, 0x7f, 0x1f, 0x25, 0xc5,
   0x0c, 0x52, 0x07, 0x39, 0x22, 0x26, 0xe9, 0xf1, 0xc6, 0x43, 0x4e, 0x03,
   0x79, 0x19, 0x31, 0xb3, 0xd2, 0x9d, 0x0c, 0xa4, 0xd5, 0x6d, 0xf3, 0x48,
   0x93, 0xb6, 0x0b, 0x04, 0xf6, 0x28, 0xd3, 0x47, 0xd0, 0xba, 0xd1, 0xcd,
   0xf7, 0x7f, 0xe8, 0x1b, 0x27, 0xf3, 0x28, 0xdc, 0x63, 0x20, 0x3b, 0xdd,
   0x04, 0xdf, 0xfe, 0x29, 0xea, 0x34, 0x52, 0x9f, 0x10, 0x1e, 0x4d, 0x1b,
   0x33, 0x56, 0x09, 0xe8, 0xee, 0x45, 0x04, 0x59, 0x0d, 0x00, 0x1c, 0xbc,
   0x1b, 0x47, 0x1f, 0x3f, 0x3f, 0x23, 0xfa, 0xa3, 0x40, 0x21, 0x17, 0x35,
   0x00, 0xf4, 0x18, 0xad, 0x33, 0xd8, 0xd6, 0x7f, 0xc0, 0xd1, 0xe9, 0xcc,
   0x38, 0xbd, 0xd8, 0x64, 0xd3, 0xd4, 0xca, 0x24, 0x77, 0xd4, 0xdf, 0x23,
   0xe9, 0xfd, 0xb9, 0xfd, 0x2f, 0x5c, 0xe7, 0x3e, 0x89, 0x09, 0xd1, 0xff,
   0x65, 0x6c, 0xf9, 0x7a, 0xcf, 0xef, 0xcf, 0xbe, 0x51, 0x68, 0xbd, 0x41,
   0xa0, 0xfd, 0xb8, 0xc9, 0x0e, 0xb1, 0x5d, 0x7f, 0xd9, 0x1d, 0xe8, 0xda,
   0x26, 0x8b, 0xe4, 0x51, 0x2a, 0x34, 0x07, 0xd4, 0x50, 0xc6, 0x53, 0x6b,
   0xf7, 0x25, 0xf2, 0x12, 0x19, 0xe7, 0x69, 0xa5, 0x00, 0xea, 0x4e, 0x99,
   0xc2, 0xcd, 0x0a, 0xf4, 0x06, 0xf0, 0x1c, 0x23, 0xee, 0x14, 0x67, 0xd3,
   0x10, 0xd8, 0x7f, 0x98, 0x2a, 0x33, 0x19, 0x35, 0x1c, 0xf4, 0xe4, 0x35,
   0x09, 0x12, 0xfb, 0x1e, 0x16, 0x1b, 0xdc, 0x27, 0x36, 0x60, 0xc6, 0x12,
   0x20, 0xfb, 0x03, 0x17, 0x12, 0xe3, 0xff, 0xff, 0x04, 0x00, 0x00, 0x00,
   0x40, 0x00, 0x00, 0x00, 0x84, 0xfe, 0xff, 0xff, 0xec, 0x07, 0x00, 0x00,
   0x94, 0xfa, 0xff, 0xff, 0x3d, 0x02, 0x00, 0x00, 0xab, 0x01, 0x00, 0x00,
   0x52, 0x01, 0x00, 0x00, 0x01, 0xfd, 0xff, 0xff, 0xcd, 0x03, 0x00, 0x00,
   0x67, 0x03, 0x00, 0x00, 0xed, 0xfe, 0xff, 0xff, 0x5c, 0x04, 0x00, 0x00,
   0xa9, 0x02, 0x00, 0x00, 0xc6, 0xff, 0xff, 0xff, 0x14, 0xff, 0xff, 0xff,
   0xbb, 0x08, 0x00, 0x00, 0x7b, 0xfd, 0xff, 0xff, 0x5e, 0xe3, 0xff, 0xff,
   0x04, 0x00, 0x00, 0x00, 0x00, 0x02, 0x00, 0x00, 0x9e, 0x56, 0x59, 0xbe,
   0x38, 0xe3, 0xe4, 0xc2, 0xeb, 0xc0, 0x31, 0xd3, 0x7f, 0x76, 0xf3, 0xac,
   0x7f, 0xdc, 0xd1, 0xf6, 0xda, 0x2f, 0x28, 0xe0, 0x0a, 0xfa, 0xcd, 0x06,
   0x56, 0xc5, 0xeb, 0xbf, 0x70, 0xcb, 0xb9, 0xd8, 0xd3, 0x74, 0x31, 0x5f,
   0xb4, 0xe5, 0x7f, 0xb9, 0xdf, 0x27, 0xe9, 0xd6, 0xc5, 0xd9, 0x63, 0x17,
   0x5f, 0x81, 0x0f, 0xc0, 0x7a, 0x2a, 0xfd, 0x1f, 0x27, 0x8c, 0x4e, 0xdd,
   0x64, 0x9c, 0x99, 0xfb, 0x30, 0x0f, 0xf0, 0xc3, 0x19, 0x39, 0x34, 0xd6,
   0x46, 0xf1, 0x7f, 0x1e, 0x0b, 0xe2, 0x81, 0x19, 0x19, 0x0b, 0xb7, 0x06,
   0xa3, 0x07, 0x03, 0x09, 0x93, 0x4f, 0x46, 0xe4, 0x65, 0x9e, 0x3c, 0x56,
   0x2c, 0xd8, 0x19, 0x00, 0x81, 0xc7, 0x9a, 0xd9, 0xe1, 0xbc, 0xd1, 0xcd,
   0x11, 0x4a, 0xf2, 0xb8, 0x3a, 0x86, 0x03, 0x8d, 0x76, 0x51, 0xce, 0x54,
   0x4c, 0x81, 0xe6, 0xbe, 0x59, 0x30, 0xa6, 0x3a, 0x98, 0xe7, 0xa7, 0x30,
   0x0e, 0x95, 0x4e, 0x81, 0xff, 0xee, 0x6e, 0xcd, 0xe3, 0x81, 0x88, 0x67,
   0xfa, 0x4d, 0xd7, 0xdf, 0x32, 0xf6, 0xae, 0x9f, 0xed, 0xb2, 0x29, 0x9d,
   0xde, 0xc2, 0x2a, 0x4d, 0xeb, 0x7f, 0xd5, 0x7c, 0xf0, 0xb5, 0x3f, 0xf4,
   0x98, 0x5f, 0x42, 0xe6, 0xdd, 0xe9, 0x14, 0x3c, 0x7f, 0xd5, 0x0d, 0x18,
   0xd3, 0xef, 0x3c, 0xaa, 0x03, 0x23, 0x0b, 0xe5, 0xdc, 0x07, 0x81, 0xdf,
   0xde, 0x49, 0xe9, 0xed, 0xb3, 0x23, 0x1d, 0xe2, 0x85, 0x23, 0x3e, 0xbe,
   0x08, 0xf7, 0x81, 0x43, 0xc5, 0xd8, 0xf2, 0x09, 0x1b, 0xfc, 0x26, 0x24,
   0x0b, 0x25, 0x58, 0x25, 0xeb, 0x0c, 0x3a, 0xbe, 0xbf, 0xe5, 0x20, 0xd5,
   0xd2, 0xde, 0xfa, 0x2f, 0xe3, 0x7f, 0xb0, 0x57, 0x0e, 0x0b, 0x84, 0xf6,
   0xf7, 0xe9, 0xbe, 0x1f, 0xcb, 0xc1, 0x01, 0xb0, 0x81, 0x0e, 0x6b, 0xca,
   0x53, 0xb4, 0x87, 0x4d, 0x3a, 0xee, 0x87, 0xbe, 0x26, 0xac, 0xc8, 0x8d,
   0x3c, 0x35, 0x12, 0x81, 0x29, 0x7f, 0xa4, 0xaa, 0xf1, 0xb4, 0x3e, 0x4b,
   0x11, 0xe2, 0x1b, 0x22, 0xd2, 0x25, 0x67, 0xd2, 0xb4, 0xe3, 0xca, 0xa2,
   0x7f, 0x14, 0xe8, 0x86, 0xd1, 0x4c, 0x20, 0xab, 0x52, 0xd0, 0xc6, 0xad,
   0x24, 0x9a, 0xef, 0xbf, 0x0a, 0xe3, 0x05, 0x07, 0x13, 0x81, 0xc9, 0x09,
   0xab, 0x2b, 0x5e, 0x18, 0x4d, 0x47, 0x3a, 0xdb, 0xfc, 0x32, 0xf2, 0x67,
   0xd7, 0x0c, 0xf3, 0xf6, 0xd5, 0x7f, 0xd5, 0x0b, 0xbd, 0x81, 0xa8, 0x27,
   0xe0, 0x05, 0x26, 0xe0, 0x2c, 0xcc, 0x14, 0xd8, 0xac, 0x26, 0x19, 0xdd,
   0x04, 0x96, 0x09, 0xf8, 0xb0, 0x7f, 0x0b, 0x45, 0xbd, 0xfe, 0x52, 0xf6,
   0x0b, 0x1a, 0x4a, 0xf3, 0x11, 0xbb, 0xa2, 0xfe, 0x46, 0xb9, 0x3b, 0xbe,
   0x00, 0x13, 0xc2, 0x15, 0xda, 0xb4, 0x7f, 0xb8, 0x1e, 0x17, 0x81, 0x16,
   0xc0, 0x3b, 0xfd, 0xef, 0xd6, 0x13, 0xe2, 0xb6, 0xbb, 0x2b, 0xda, 0xde,
   0xd3, 0x19, 0xcb, 0x4f, 0xb4, 0x4a, 0x02, 0x35, 0xff, 0xd4, 0xf8, 0xd9,
   0x81, 0xec, 0x4c, 0xd0, 0x23, 0x0f, 0x3a, 0xfb, 0x1b, 0xa2, 0x5e, 0x81,
   0xd8, 0xe6, 0x93, 0x31, 0x4a, 0x8b, 0xdf, 0x28, 0x59, 0x36, 0xf7, 0x81,
   0xf2, 0xbd, 0xaf, 0xb6, 0xa2, 0x24, 0x30, 0xd7, 0xae, 0x54, 0x0a, 0xa7,
   0x0b, 0x5a, 0x1c, 0x32, 0x47, 0xfb, 0x7f, 0x44, 0xde, 0x62, 0x07, 0x53,
   0xbf, 0x0e, 0xcc, 0x70, 0xe6, 0xb1, 0xfd, 0x81, 0x46, 0x97, 0xa8, 0xc5,
   0xb0, 0x07, 0xf3, 0xce, 0x6e, 0x5a, 0x3d, 0xeb, 0x3b, 0x4e, 0xcd, 0xd9,
   0x13, 0x3c, 0xf2, 0xbf, 0x26, 0x07, 0x7f, 0x04, 0xcd, 0xd7, 0x7b, 0x57,
   0x0c, 0xa3, 0xf9, 0xe1, 0x3b, 0x05, 0xdf, 0xa9, 0xdf, 0x1d, 0xbf, 0x1b,
   0x1c, 0x81, 0xe2, 0xdf, 0x6a, 0xe5, 0xff, 0xff, 0x04, 0x00, 0x00, 0x00,
   0x80, 0x00, 0x00, 0x00, 0xe3, 0x03, 0x00, 0x00, 0xdb, 0x00, 0x00, 0x00,
   0x2e, 0x06, 0x00, 0x00, 0xaf, 0xfd, 0xff, 0xff, 0xec, 0x01, 0x00, 0x00,
   0x73, 0xff, 0xff, 0xff, 0x29, 0xfb, 0xff, 0xff, 0xd9, 0x02, 0x00, 0x00,
   0x01, 0xfd, 0xff, 0xff, 0x0a, 0x00, 0x00, 0x00, 0xcc, 0x04, 0x00, 0x00,
   0xb9, 0xfc, 0xff, 0xff, 0x03, 0x01, 0x00, 0x00, 0xc4, 0xff, 0xff, 0xff,
   0xaa, 0xfc, 0xff, 0xff, 0xd5, 0x04, 0x00, 0x00, 0x7b, 0xfd, 0xff, 0xff,
   0x72, 0x0b, 0x00, 0x00, 0x3c, 0xf9, 0xff, 0xff, 0xd3, 0xfe, 0xff, 0xff,
   0x24, 0x06, 0x00, 0x00, 0x18, 0xff, 0xff, 0xff, 0x7d, 0x04, 0x00, 0x00,
   0x47, 0xfe, 0xff, 0xff, 0x00, 0xff, 0xff, 0xff, 0xe0, 0x00, 0x00, 0x00,
   0x01, 0x01, 0x00, 0x00, 0x57, 0xfe, 0xff, 0xff, 0x83, 0x03, 0x00, 0x00,
   0xf0, 0xfa, 0xff, 0xff, 0x6d, 0x09, 0x00, 0x00, 0x27, 0xff, 0xff, 0xff,
   0xf6, 0xe5, 0xff, 0xff, 0x04, 0x00, 0x00, 0x00, 0x00, 0x02, 0x00, 0x00,
   0xfb, 0xdb, 0xe8, 0xf1, 0xff, 0xef, 0x15, 0xea, 0xd0, 0xdc, 0x34, 0xf1,
   0xf3, 0x22, 0x7f, 0xfe, 0xd5, 0x03, 0x0b, 0xf2, 0x30, 0xc2, 0x31, 0x03,
   0xeb, 0x0a, 0x32, 0x05, 0x19, 0xf0, 0xf7, 0xd4, 0x48, 0xeb, 0xed, 0x0e,
   0xe8, 0x23, 0x1a, 0xe5, 0x10, 0x02, 0xfb, 0x7f, 0xfc, 0x99, 0xff, 0xfb,
   0x0c, 0xe1, 0x14, 0xf2, 0x2f, 0x10, 0x1b, 0x90, 0x02, 0x0f, 0x19, 0xe7,
   0xd2, 0x16, 0xdf, 0xe6, 0x23, 0x14, 0x31, 0x9b, 0x41, 0x48, 0x55, 0xae,
   0xf8, 0x12, 0x2a, 0x39, 0x7f, 0x3d, 0xaa, 0x24, 0x21, 0x35, 0xd5, 0x2b,
   0x4c, 0x68, 0x2a, 0xbb, 0x52, 0xdf, 0x98, 0x2d, 0x92, 0x78, 0x14, 0xe5,
   0x28, 0x8d, 0xd1, 0xd6, 0xe0, 0x09, 0x21, 0x0b, 0xfa, 0xfc, 0x15, 0xf5,
   0xcf, 0x5c, 0x20, 0x1a, 0xc2, 0x18, 0xc3, 0xd3, 0x08, 0xd3, 0x47, 0x5e,
   0xee, 0x1d, 0x09, 0xcd, 0x33, 0xbe, 0x0a, 0x81, 0xe6, 0x4d, 0x08, 0x5b,
   0xee, 0xdf, 0xc0, 0x0a, 0x51, 0xfb, 0xb3, 0x7f, 0xff, 0x8a, 0xb4, 0xd8,
   0x26, 0xd9, 0xaf, 0x28, 0x08, 0xe8, 0x11, 0xb9, 0xfc, 0x26, 0xb9, 0xd6,
   0xd5, 0xce, 0xd7, 0x1f, 0xe4, 0x72, 0xe3, 0x37, 0xcf, 0xce, 0x05, 0x03,
   0x81, 0x11, 0xb8, 0x52, 0xa1, 0xe7, 0x16, 0x98, 0xd0, 0xf5, 0xef, 0xb1,
   0x4e, 0xd7, 0xde, 0x04, 0xf4, 0x11, 0x42, 0x20, 0x40, 0xea, 0xd7, 0xda,
   0xe6, 0xdf, 0xe2, 0x91, 0x1e, 0x53, 0xbb, 0xae, 0x11, 0x1a, 0x46, 0x0b,
   0x49, 0x3f, 0xd2, 0x5c, 0xf3, 0x06, 0xe5, 0x51, 0x7f, 0x0d, 0x27, 0xa2,
   0x3c, 0x61, 0xf1, 0x04, 0x1c, 0x5d, 0xa1, 0x90, 0x7e, 0x1e, 0x44, 0xea,
   0x39, 0x59, 0x1d, 0xb6, 0xa2, 0x7f, 0x41, 0xf4, 0xdd, 0xfe, 0x8b, 0x69,
   0x15, 0xc8, 0x90, 0x41, 0x34, 0xea, 0xe1, 0x93, 0x9f, 0x4d, 0xbe, 0xef,
   0xd7, 0xae, 0x6d, 0x1b, 0xd5, 0x14, 0x05, 0xf5, 0x60, 0xda, 0xe1, 0x16,
   0xc6, 0x20, 0xf8, 0xea, 0x16, 0x2d, 0xe7, 0xe1, 0x2d, 0x60, 0x0d, 0xae,
   0xe4, 0xfb, 0x1b, 0x7f, 0x27, 0x21, 0x23, 0x10, 0xe7, 0xea, 0x4a, 0xd2,
   0xd7, 0xa2, 0xe4, 0xc2, 0x5c, 0xc3, 0xce, 0xf0, 0xa4, 0x22, 0x85, 0x0a,
   0x07, 0x54, 0xef, 0xb6, 0xc2, 0x11, 0x0b, 0xdb, 0x89, 0x29, 0x84, 0x41,
   0x3b, 0xab, 0x4a, 0xc6, 0x3d, 0xd4, 0x30, 0x81, 0xda, 0x9b, 0xe7, 0x0c,
   0x33, 0xdd, 0x07, 0x38, 0xea, 0xb3, 0x1c, 0x9e, 0xea, 0x7f, 0x30, 0xd4,
   0xb2, 0x76, 0xab, 0xdb, 0x20, 0xb9, 0x1b, 0x2e, 0xdb, 0x07, 0xdf, 0xd6,
   0x19, 0xd1, 0x59, 0x8a, 0xbf, 0x70, 0x22, 0x18, 0x33, 0x2b, 0xce, 0x22,
   0x1b, 0x3f, 0x30, 0x43, 0xfd, 0x56, 0xc7, 0x5d, 0x1d, 0x7d, 0x0d, 0xc0,
   0xdd, 0x24, 0xe8, 0x7f, 0xad, 0x1c, 0x2d, 0xdb, 0xe7, 0xfc, 0x48, 0xb4,
   0x12, 0xa0, 0x35, 0xf5, 0x1e, 0x16, 0xd5, 0xdf, 0x21, 0x81, 0x0f, 0x06,
   0xd1, 0x2c, 0x7e, 0xe0, 0xc7, 0x00, 0xb9, 0x20, 0x1a, 0xc4, 0x43, 0xe0,
   0xc5, 0xfb, 0x17, 0x2b, 0x33, 0xd6, 0x19, 0xa0, 0x2a, 0x45, 0x8b, 0x3b,
   0x0a, 0xb9, 0xca, 0xff, 0xdc, 0xaf, 0x81, 0xba, 0xd5, 0x43, 0x13, 0xc6,
   0xf4, 0xe2, 0x15, 0xbb, 0xdd, 0xd1, 0xba, 0x17, 0xc9, 0x18, 0x14, 0xfe,
   0x40, 0xd6, 0x27, 0xe2, 0x0b, 0x09, 0x31, 0xdc, 0x1f, 0x0e, 0xf0, 0x0c,
   0x20, 0xeb, 0x17, 0xf9, 0xf3, 0x4a, 0xc9, 0x3c, 0x28, 0x5f, 0xfb, 0xe0,
   0x41, 0xf5, 0x1e, 0x7f, 0x17, 0x05, 0xe7, 0xff, 0x18, 0xf3, 0x39, 0x93,
   0x08, 0x55, 0x81, 0x32, 0xec, 0xdb, 0xf7, 0x44, 0xdb, 0xd0, 0xb4, 0x1d,
   0xaf, 0x45, 0xeb, 0xb0, 0xcb, 0xe8, 0xcc, 0xe3, 0xee, 0xb7, 0xa6, 0x1f,
   0xf6, 0x0d, 0x3b, 0xc7, 0x13, 0x05, 0x00, 0x42, 0x02, 0xe8, 0xff, 0xff,
   0x04, 0x00, 0x00, 0x00, 0x40, 0x00, 0x00, 0x00, 0x9b, 0x02, 0x00, 0x00,
   0x28, 0x00, 0x00, 0x00, 0x47, 0x04, 0x00, 0x00, 0x2b, 0x0b, 0x00, 0x00,
   0xdf, 0xf5, 0xff, 0xff, 0x9c, 0x00, 0x00, 0x00, 0xfd, 0x05, 0x00, 0x00,
   0xdb, 0xfa, 0xff, 0xff, 0x11, 0x03, 0x00, 0x00, 0x75, 0x04, 0x00, 0x00,
   0x96, 0x02, 0x00, 0x00, 0x69, 0x0b, 0x00, 0x00, 0x07, 0x02, 0x00, 0x00,
   0x36, 0xff, 0xff, 0xff, 0x71, 0x08, 0x00, 0x00, 0x4e, 0xfb, 0xff, 0xff,
   0x4e, 0xe8, 0xff, 0xff, 0x04, 0x00, 0x00, 0x00, 0x80, 0x00, 0x00, 0x00,
   0x04, 0x30, 0x06, 0x0f, 0xc7, 0xb9, 0x05, 0xf1, 0xd3, 0x32, 0x84, 0x12,
   0x0e, 0x90, 0xa4, 0x81, 0x1c, 0xb1, 0x8c, 0x06, 0xf8, 0x2b, 0x81, 0xe6,
   0x3d, 0xf2, 0x22, 0x25, 0xa2, 0x53, 0xf6, 0x76, 0x07, 0x81, 0xbf, 0x18,
   0x10, 0xf7, 0xca, 0xe9, 0x11, 0x40, 0x75, 0x2c, 0x09, 0xd7, 0x67, 0x0a,
   0x7f, 0x72, 0xe1, 0x3a, 0xe7, 0x15, 0x08, 0x36, 0xa6, 0xab, 0x28, 0xf7,
   0x4a, 0x34, 0xce, 0x32, 0x0a, 0x34, 0x7f, 0xe7, 0x54, 0xfe, 0x55, 0xe2,
   0x8f, 0x8c, 0xa1, 0xec, 0xfc, 0xab, 0xe9, 0x02, 0x4e, 0xbd, 0x14, 0x37,
   0xbc, 0xd0, 0x3a, 0xbb, 0x07, 0xe4, 0x58, 0x2e, 0x2d, 0x25, 0x51, 0x81,
   0x01, 0x25, 0xec, 0x19, 0xec, 0x16, 0x0f, 0x1e, 0x19, 0xf1, 0xe2, 0x1c,
   0xe4, 0x9b, 0x0b, 0x81, 0x5e, 0xeb, 0x81, 0x0a, 0xcd, 0x3b, 0xb6, 0x8c,
   0x26, 0x46, 0x57, 0xc9, 0x62, 0x1f, 0xda, 0xeb, 0xda, 0xe8, 0xff, 0xff,
   0x04, 0x00, 0x00, 0x00, 0x20, 0x00, 0x00, 0x00, 0x85, 0xfd, 0xff, 0xff,
   0xca, 0x00, 0x00, 0x00, 0xab, 0x02, 0x00, 0x00, 0x21, 0xfd, 0xff, 0xff,
   0x73, 0x07, 0x00, 0x00, 0xfe, 0x0e, 0x00, 0x00, 0xfc, 0x03, 0x00, 0x00,
   0x6a, 0x05, 0x00, 0x00, 0x06, 0xe9, 0xff, 0xff, 0x04, 0x00, 0x00, 0x00,
   0x00, 0x01, 0x00, 0x00, 0x3b, 0xc3, 0xb9, 0x5f, 0x11, 0xcb, 0x1c, 0xfa,
   0xc4, 0x40, 0x3f, 0xd2, 0x2a, 0x47, 0xf4, 0x3b, 0xa6, 0x47, 0xea, 0xcd,
   0x20, 0x0d, 0xcc, 0xe7, 0xb4, 0x29, 0xc6, 0x30, 0x57, 0xd8, 0xe7, 0x24,
   0x1b, 0x28, 0xa8, 0x08, 0xf5, 0x81, 0x23, 0x07, 0xfc, 0xd6, 0xe3, 0xab,
   0x04, 0x21, 0x52, 0x0b, 0xf9, 0x57, 0x4c, 0xfa, 0xed, 0x92, 0xca, 0x1d,
   0xe5, 0xd2, 0xc4, 0xb7, 0x0a, 0xcb, 0x0b, 0xba, 0x36, 0x2d, 0xe9, 0xc7,
   0x1e, 0x21, 0x12, 0xf8, 0x14, 0xcc, 0x0d, 0xf4, 0xe5, 0x15, 0x1e, 0xd9,
   0xf7, 0x50, 0xfd, 0xdf, 0xe0, 0x28, 0xc5, 0x46, 0xf9, 0xba, 0x0c, 0x2c,
   0x27, 0xcf, 0x16, 0xbb, 0xb6, 0x4d, 0x14, 0xaa, 0xe0, 0x18, 0x38, 0x2f,
   0x56, 0xb2, 0xbe, 0x2d, 0x38, 0xd0, 0x1b, 0xb6, 0xdc, 0xce, 0xa4, 0xf0,
   0x3e, 0x09, 0xc6, 0xdf, 0x24, 0xf8, 0xef, 0x44, 0x0d, 0xe2, 0x3c, 0xea,
   0x06, 0x07, 0xd4, 0x0a, 0x53, 0xd7, 0x24, 0x4b, 0xfd, 0x03, 0x4e, 0x10,
   0xcb, 0x06, 0x13, 0x2b, 0xce, 0xf6, 0xd9, 0x01, 0xd2, 0xf6, 0xa9, 0x0c,
   0xfb, 0x2d, 0x14, 0xd6, 0xcc, 0xe1, 0xaa, 0x4c, 0xbb, 0x25, 0x0c, 0xd6,
   0xea, 0x41, 0xc7, 0x48, 0x31, 0xb6, 0x10, 0xcd, 0x19, 0x4b, 0x4a, 0xb5,
   0x34, 0x2d, 0xcb, 0x5c, 0xd1, 0x11, 0xde, 0xfd, 0xbe, 0x2b, 0x45, 0x28,
   0x22, 0x03, 0x1f, 0xc8, 0x44, 0x37, 0xe2, 0x73, 0xcc, 0xba, 0x17, 0x1f,
   0xd6, 0xf0, 0xf9, 0x35, 0xdb, 0x3c, 0xde, 0xbd, 0xc2, 0xe7, 0x23, 0xc6,
   0xd2, 0x31, 0xe0, 0x9f, 0xbb, 0x20, 0x25, 0x04, 0x0b, 0xb0, 0xf8, 0x3c,
   0x35, 0xc0, 0x20, 0x53, 0xca, 0x4f, 0x2e, 0x3b, 0xc4, 0xbf, 0xd1, 0xde,
   0x3a, 0x32, 0xfe, 0x0d, 0x2c, 0xef, 0xee, 0xaf, 0x27, 0x1b, 0xca, 0xe8,
   0x00, 0xd5, 0x1e, 0x3d, 0xec, 0xe0, 0x3c, 0xfb, 0x12, 0xea, 0xff, 0xff,
   0x04, 0x00, 0x00, 0x00, 0x80, 0x00, 0x00, 0x00, 0x83, 0x02, 0x00, 0x00,
   0x8b, 0xff, 0xff, 0xff, 0x4b, 0x01, 0x00, 0x00, 0x7a, 0x03, 0x00, 0x00,
   0x4d, 0xf6, 0xff, 0xff, 0xec, 0x03, 0x00, 0x00, 0x75, 0x05, 0x00, 0x00,
   0xdf, 0x04, 0x00, 0x00, 0xfe, 0x0e, 0x00, 0x00, 0x4a, 0x03, 0x00, 0x00,
   0x90, 0xf8, 0xff, 0xff, 0xf0, 0xfb, 0xff, 0xff, 0x01, 0x0a, 0x00, 0x00,
   0x4d, 0x00, 0x00, 0x00, 0xd9, 0x01, 0x00, 0x00, 0x6f, 0x03, 0x00, 0x00,
   0x60, 0x03, 0x00, 0x00, 0x5f, 0xfe, 0xff, 0xff, 0xf8, 0xfa, 0xff, 0xff,
   0x17, 0x08, 0x00, 0x00, 0xdc, 0x04, 0x00, 0x00, 0x4c, 0x00, 0x00, 0x00,
   0xc6, 0xfe, 0xff, 0xff, 0x9f, 0xf7, 0xff, 0xff, 0x70, 0x06, 0x00, 0x00,
   0x5c, 0x01, 0x00, 0x00, 0x98, 0xf9, 0xff, 0xff, 0x1a, 0xf6, 0xff, 0xff,
   0x0a, 0x08, 0x00, 0x00, 0x71, 0xfa, 0xff, 0xff, 0xe5, 0x01, 0x00, 0x00,
   0x5a, 0x0c, 0x00, 0x00, 0x9e, 0xea, 0xff, 0xff, 0x04, 0x00, 0x00, 0x00,
   0x00, 0x02, 0x00, 0x00, 0x2a, 0xb6, 0xdf, 0xf1, 0x4c, 0x0b, 0xd3, 0x38,
   0xb8, 0xf5, 0xe8, 0x15, 0xba, 0x1e, 0x24, 0x26, 0x24, 0xb2, 0x2f, 0xb7,
   0xd0, 0x3a, 0xd6, 0xb1, 0xfd, 0x00, 0xf7, 0x17, 0xe9, 0x14, 0x31, 0x41,
   0xe9, 0xfa, 0x7d, 0xe2, 0x00, 0x19, 0xfa, 0x29, 0x0d, 0x10, 0x50, 0x2c,
   0xd6, 0xe9, 0x01, 0xd5, 0xca, 0xc2, 0xef, 0x1a, 0xcd, 0xf6, 0xf1, 0x19,
   0xdf, 0xb7, 0x17, 0x3e, 0xb8, 0x20, 0xf6, 0x81, 0xcf, 0xea, 0x25, 0x05,
   0x04, 0x29, 0x14, 0x24, 0xf7, 0x1a, 0xfc, 0x06, 0x1d, 0xff, 0x1f, 0xf2,
   0x0e, 0xe5, 0x0d, 0xea, 0xf1, 0x37, 0xf0, 0xe8, 0xee, 0xc1, 0xc9, 0xf8,
   0xf9, 0x11, 0x21, 0xee, 0xcd, 0x09, 0x14, 0x00, 0x16, 0x10, 0xe7, 0x16,
   0x18, 0x14, 0xb5, 0x1b, 0x09, 0x19, 0x07, 0x0c, 0x27, 0xf5, 0xe1, 0xdc,
   0x0d, 0x22, 0xe4, 0xc9, 0xec, 0xbe, 0xee, 0x1d, 0xf0, 0xf5, 0x20, 0x0e,
   0x07, 0x28, 0x07, 0xc5, 0xd1, 0x08, 0xf4, 0xeb, 0x25, 0xb8, 0x16, 0xec,
   0x04, 0x0e, 0x17, 0xf3, 0xe2, 0x1f, 0x07, 0xf8, 0x16, 0xad, 0xda, 0x06,
   0xde, 0xfa, 0x02, 0xda, 0xee, 0xed, 0x0d, 0xf9, 0xe7, 0x01, 0xfb, 0xda,
   0x10, 0xce, 0xf7, 0xef, 0xee, 0xd2, 0xf8, 0xf1, 0x11, 0xec, 0xeb, 0xfe,
   0xe9, 0x18, 0xfe, 0x1c, 0x37, 0xc6, 0x04, 0xf1, 0xea, 0x22, 0x07, 0x01,
   0x25, 0x0a, 0xfd, 0x15, 0x39, 0x05, 0xe7, 0x30, 0x2a, 0xdc, 0xe2, 0x1e,
   0xe9, 0x01, 0xef, 0x1c, 0xf7, 0x1c, 0x1d, 0x1c, 0xfd, 0xe6, 0xfa, 0xdb,
   0xbe, 0x26, 0xda, 0xfe, 0xf7, 0x23, 0x01, 0x22, 0xeb, 0x29, 0xfb, 0xfc,
   0x06, 0xe3, 0x84, 0x00, 0x72, 0xe1, 0xcd, 0x2c, 0xbe, 0xf9, 0xf9, 0x23,
   0xfb, 0xfa, 0x20, 0x18, 0xea, 0xe9, 0x2b, 0xd4, 0xe0, 0x2b, 0xe9, 0xe5,
   0xd7, 0xf4, 0xca, 0x22, 0xea, 0x0a, 0xe8, 0xe8, 0xe3, 0xf4, 0x08, 0x1a,
   0x59, 0xdc, 0x11, 0x22, 0xec, 0xe2, 0x29, 0x17, 0xe6, 0x05, 0xf3, 0xfe,
   0x20, 0xea, 0xfb, 0x03, 0xe5, 0x26, 0xf0, 0x23, 0xe0, 0xa4, 0xf1, 0x3f,
   0xc9, 0x16, 0x1b, 0xe6, 0xc7, 0x17, 0xd5, 0xe2, 0xc7, 0x02, 0x15, 0xde,
   0x00, 0xfd, 0x21, 0x01, 0xf4, 0xfb, 0x0b, 0xd0, 0xd8, 0x11, 0xff, 0x1d,
   0x25, 0xfc, 0xf4, 0xfb, 0x10, 0x1a, 0x0e, 0xdb, 0x25, 0x01, 0x16, 0x1b,
   0xd9, 0x0f, 0xed, 0x05, 0x26, 0xae, 0x21, 0xea, 0xf3, 0xbf, 0x42, 0x05,
   0x05, 0xd0, 0xf2, 0xff, 0x04, 0x14, 0x14, 0xfb, 0x04, 0xf4, 0x02, 0x3a,
   0x16, 0xad, 0x0a, 0x69, 0xed, 0x1d, 0xf9, 0xec, 0xd9, 0xff, 0x30, 0xc0,
   0x04, 0xc1, 0xf8, 0xf1, 0x18, 0xcf, 0x03, 0xf0, 0x20, 0xf9, 0xec, 0xa5,
   0xb9, 0xe3, 0xe6, 0xfd, 0x1d, 0xda, 0xeb, 0x04, 0xea, 0x12, 0x2c, 0x2e,
   0xb8, 0x0f, 0xee, 0x96, 0xd3, 0xeb, 0x2c, 0xc2, 0x28, 0xd9, 0xda, 0x46,
   0xd4, 0xec, 0x86, 0x2d, 0xdb, 0x29, 0xf4, 0xcc, 0xdf, 0xdd, 0xe9, 0xd2,
   0xb5, 0x0c, 0xde, 0x8e, 0xce, 0xaa, 0xce, 0x14, 0x84, 0xeb, 0x27, 0xb6,
   0x23, 0x0e, 0xbd, 0x31, 0xf8, 0x1f, 0xde, 0xf1, 0x00, 0x06, 0x08, 0x1d,
   0xe3, 0x19, 0x15, 0x24, 0x3f, 0xe3, 0xf8, 0x0d, 0x0f, 0x16, 0x1f, 0xdb,
   0x0d, 0x00, 0xba, 0xfe, 0x37, 0xef, 0xf0, 0x3b, 0x05, 0xf9, 0x50, 0x48,
   0x38, 0x27, 0x29, 0x1b, 0x35, 0xff, 0xb4, 0x07, 0x1d, 0x02, 0x19, 0x17,
   0x0c, 0xf7, 0x03, 0x15, 0x0d, 0x1b, 0xff, 0xf0, 0x2a, 0x14, 0xb0, 0xf1,
   0xe3, 0xdd, 0xeb, 0x32, 0xf5, 0xd6, 0x22, 0x16, 0x56, 0xf8, 0x07, 0x2d,
   0xed, 0xfe, 0x11, 0x36, 0xe8, 0x10, 0xe4, 0x0e, 0x01, 0xdf, 0xfb, 0xf4,
   0xd9, 0xed, 0xf4, 0x14, 0xf4, 0xc0, 0xf8, 0x30, 0xb8, 0x03, 0x05, 0xee,
   0xaa, 0xec, 0xff, 0xff, 0x04, 0x00, 0x00, 0x00, 0x40, 0x00, 0x00, 0x00,
   0x07, 0x02, 0x00, 0x00, 0xd7, 0xf7, 0xff, 0xff, 0x0c, 0x05, 0x00, 0x00,
   0x54, 0x05, 0x00, 0x00, 0xf8, 0x03, 0x00, 0x00, 0x75, 0x03, 0x00, 0x00,
   0xd1, 0xfb, 0xff, 0xff, 0xc1, 0xfc, 0xff, 0xff, 0x34, 0xf5, 0xff, 0xff,
   0x2e, 0x02, 0x00, 0x00, 0xcf, 0xf6, 0xff, 0xff, 0xac, 0xfe, 0xff, 0xff,
   0x2f, 0xfa, 0xff, 0xff, 0xb1, 0x02, 0x00, 0x00, 0x32, 0x0f, 0x00, 0x00,
   0x21, 0xfe, 0xff, 0xff, 0xf6, 0xec, 0xff, 0xff, 0x04, 0x00, 0x00, 0x00,
   0x00, 0x01, 0x00, 0x00, 0xab, 0x1e, 0xb0, 0xc9, 0x31, 0x3c, 0x92, 0xe4,
   0xfa, 0x49, 0x2e, 0x25, 0x09, 0xcd, 0xd2, 0xdb, 0x01, 0x2b, 0xed, 0x1c,
   0xe2, 0x0b, 0xe2, 0xf1, 0xf2, 0x0b, 0xfc, 0x1b, 0x3c, 0xf5, 0x00, 0xf1,
   0x11, 0x30, 0xfa, 0xeb, 0xe8, 0xfc, 0x45, 0x38, 0x0f, 0x1b, 0xf5, 0x04,
   0xee, 0xf6, 0x02, 0x2d, 0x06, 0xf1, 0x28, 0x42, 0xe3, 0xe7, 0x21, 0x20,
   0xe6, 0x1b, 0x04, 0x12, 0x3c, 0xf7, 0xe9, 0xf8, 0x4f, 0x3e, 0x15, 0x2b,
   0x1c, 0xfb, 0x65, 0x35, 0x0b, 0xd3, 0x26, 0xec, 0x17, 0x0a, 0xf7, 0xfa,
   0xce, 0x0b, 0x1f, 0xcf, 0x0c, 0x0b, 0x01, 0xc5, 0x05, 0xef, 0x04, 0xf2,
   0xfb, 0x08, 0x00, 0x12, 0x0e, 0xff, 0x04, 0xfe, 0x2e, 0xe1, 0x1c, 0x09,
   0x24, 0xce, 0x2f, 0xf9, 0x25, 0x1f, 0xd8, 0x35, 0xd4, 0xf6, 0xc5, 0xc9,
   0x04, 0x36, 0x28, 0xec, 0xc8, 0xe3, 0xf0, 0x0c, 0xc4, 0x0b, 0x12, 0xcb,
   0x16, 0x08, 0xe2, 0xbe, 0x2d, 0xda, 0xe7, 0x1b, 0xf9, 0x0a, 0x02, 0xf7,
   0x0a, 0x17, 0xf3, 0x26, 0x5c, 0x00, 0x3d, 0x38, 0xde, 0x0b, 0x0e, 0x21,
   0x35, 0xf8, 0x12, 0x26, 0x26, 0xf1, 0xf9, 0x17, 0xed, 0x52, 0x6a, 0x55,
   0x3c, 0xd7, 0x01, 0xf6, 0x1d, 0xe1, 0x2e, 0x7f, 0x36, 0x8c, 0x17, 0x2b,
   0x3f, 0x73, 0xeb, 0xe8, 0x23, 0xe3, 0xec, 0x3f, 0x67, 0xf6, 0x13, 0x0e,
   0x48, 0x15, 0xe9, 0x37, 0x44, 0x3a, 0x14, 0x0e, 0xd1, 0x00, 0xfd, 0xe7,
   0x16, 0x1f, 0xf4, 0x21, 0x22, 0xef, 0xf4, 0x40, 0x05, 0x3b, 0xf6, 0x1a,
   0x1c, 0xdf, 0xff, 0x0d, 0xec, 0x06, 0x0a, 0x0a, 0x33, 0x10, 0xec, 0x36,
   0xee, 0x0a, 0x2f, 0x55, 0x00, 0xf5, 0xee, 0x39, 0x02, 0xd3, 0x18, 0x0d,
   0x21, 0x10, 0x01, 0x3b, 0x27, 0xe5, 0xc9, 0xb0, 0x69, 0x36, 0xda, 0xfe,
   0xbc, 0x15, 0x95, 0x2f, 0x05, 0xe9, 0xd7, 0xd9, 0x02, 0xee, 0xff, 0xff,
   0x04, 0x00, 0x00, 0x00, 0x40, 0x00, 0x00, 0x00, 0xfd, 0xf3, 0xff, 0xff,
   0x7f, 0x00, 0x00, 0x00, 0xb6, 0xff, 0xff, 0xff, 0x3c, 0x06, 0x00, 0x00,
   0xe6, 0x03, 0x00, 0x00, 0x98, 0xfe, 0xff, 0xff, 0x7f, 0x08, 0x00, 0x00,
   0x9b, 0xf9, 0xff, 0xff, 0x57, 0xff, 0xff, 0xff, 0xf2, 0x03, 0x00, 0x00,
   0x9f, 0x0d, 0x00, 0x00, 0x82, 0x04, 0x00, 0x00, 0xc9, 0x05, 0x00, 0x00,
   0xcf, 0x02, 0x00, 0x00, 0x5d, 0x05, 0x00, 0x00, 0x98, 0x03, 0x00, 0x00,
   0x4e, 0xee, 0xff, 0xff, 0x04, 0x00, 0x00, 0x00, 0x08, 0x00, 0x00, 0x00,
   0xff, 0xff, 0xff, 0xff, 0x08, 0x00, 0x00, 0x00, 0x62, 0xee, 0xff, 0xff,
   0x04, 0x00, 0x00, 0x00, 0x10, 0x00, 0x00, 0x00, 0x01, 0x00, 0x00, 0x00,
   0x08, 0x00, 0x00, 0x00, 0x01, 0x00, 0x00, 0x00, 0x01, 0x00, 0x00, 0x00,
   0x7e, 0xee, 0xff, 0xff, 0x04, 0x00, 0x00, 0x00, 0x10, 0x00, 0x00, 0x00,
   0x01, 0x00, 0x00, 0x00, 0x01, 0x00, 0x00, 0x00, 0x01, 0x00, 0x00, 0x00,
   0x20, 0x00, 0x00, 0x00, 0x9a, 0xee, 0xff, 0xff, 0x04, 0x00, 0x00, 0x00,
   0x10, 0x00, 0x00, 0x00, 0x01, 0x00, 0x00, 0x00, 0x20, 0x00, 0x00, 0x00,
   0x01, 0x00, 0x00, 0x00, 0x01, 0x00, 0x00, 0x00, 0xb6, 0xee, 0xff, 0xff,
   0x04, 0x00, 0x00, 0x00, 0x10, 0x00, 0x00, 0x00, 0x01, 0x00, 0x00, 0x00,
   0x01, 0x00, 0x00, 0x00, 0x01, 0x00, 0x00, 0x00, 0x10, 0x00, 0x00, 0x00,
   0xd2, 0xee, 0xff, 0xff, 0x04, 0x00, 0x00, 0x00, 0x10, 0x00, 0x00, 0x00,
   0x01, 0x00, 0x00, 0x00, 0x10, 0x00, 0x00, 0x00, 0x01, 0x00, 0x00, 0x00,
   0x01, 0x00, 0x00, 0x00, 0xee, 0xee, 0xff, 0xff, 0x04, 0x00, 0x00, 0x00,
   0x10, 0x00, 0x00, 0x00, 0x00, 0x00, 0x00, 0x00, 0x02, 0x00, 0x00, 0x00,
   0x03, 0x00, 0x00, 0x00, 0x01, 0x00, 0x00, 0x00, 0x0a, 0xef, 0xff, 0xff,
   0x04, 0x00, 0x00, 0x00, 0x10, 0x00, 0x00, 0x00, 0x00, 0x00, 0x00, 0x00,
   0x03, 0x00, 0x00, 0x00, 0x01, 0x00, 0x00, 0x00, 0x02, 0x00, 0x00, 0x00,
   0x26, 0xef, 0xff, 0xff, 0x04, 0x00, 0x00, 0x00, 0x10, 0x00, 0x00, 0x00,
   0x01, 0x00, 0x00, 0x00, 0x10, 0x00, 0x00, 0x00, 0x41, 0x00, 0x00, 0x00,
   0x01, 0x00, 0x00, 0x00, 0xe0, 0x92, 0xff, 0xff, 0xe4, 0x92, 0xff, 0xff,
   0x0f, 0x00, 0x00, 0x00, 0x4d, 0x4c, 0x49, 0x52, 0x20, 0x43, 0x6f, 0x6e,
   0x76, 0x65, 0x72, 0x74, 0x65, 0x64, 0x2e, 0x00, 0x01, 0x00, 0x00, 0x00,
   0x14, 0x00, 0x00, 0x00, 0x00, 0x00, 0x0e, 0x00, 0x18, 0x00, 0x14, 0x00,
   0x10, 0x00, 0x0c, 0x00, 0x08, 0x00, 0x04, 0x00, 0x0e, 0x00, 0x00, 0x00,
   0x14, 0x00, 0x00, 0x00, 0x1c, 0x00, 0x00, 0x00, 0x74, 0x11, 0x00, 0x00,
   0x78, 0x11, 0x00, 0x00, 0x7c, 0x11, 0x00, 0x00, 0x04, 0x00, 0x00, 0x00,
   0x6d, 0x61, 0x69, 0x6e, 0x00, 0x00, 0x00, 0x00, 0x58, 0x00, 0x00, 0x00,
   0x3c, 0x11, 0x00, 0x00, 0x08, 0x11, 0x00, 0x00, 0xac, 0x10, 0x00, 0x00,
   0x74, 0x10, 0x00, 0x00, 0x38, 0x10, 0x00, 0x00, 0x10, 0x10, 0x00, 0x00,
   0xcc, 0x0f, 0x00, 0x00, 0xa4, 0x0f, 0x00, 0x00, 0x70, 0x0f, 0x00, 0x00,
   0x48, 0x0f, 0x00, 0x00, 0x04, 0x0f, 0x00, 0x00, 0xdc, 0x0e, 0x00, 0x00,
   0xa8, 0x0e, 0x00, 0x00, 0x80, 0x0e, 0x00, 0x00, 0x3c, 0x0e, 0x00, 0x00,
   0x14, 0x0e, 0x00, 0x00, 0xe0, 0x0d, 0x00, 0x00, 0xb8, 0x0d, 0x00, 0x00,
   0x74, 0x0d, 0x00, 0x00, 0x4c, 0x0d, 0x00, 0x00, 0x18, 0x0d, 0x00, 0x00,
   0xf0, 0x0c, 0x00, 0x00, 0xac, 0x0c, 0x00, 0x00, 0x84, 0x0c, 0x00, 0x00,
   0x50, 0x0c, 0x00, 0x00, 0x28, 0x0c, 0x00, 0x00, 0xe4, 0x0b, 0x00, 0x00,
   0xbc, 0x0b, 0x00, 0x00, 0x88, 0x0b, 0x00, 0x00, 0x60, 0x0b, 0x00, 0x00,
   0x1c, 0x0b, 0x00, 0x00, 0xf4, 0x0a, 0x00, 0x00, 0xc0, 0x0a, 0x00, 0x00,
   0x98, 0x0a, 0x00, 0x00, 0x54, 0x0a, 0x00, 0x00, 0x2c, 0x0a, 0x00, 0x00,
   0xf8, 0x09, 0x00, 0x00, 0xd0, 0x09, 0x00, 0x00, 0x8c, 0x09, 0x00, 0x00,
   0x64, 0x09, 0x00, 0x00, 0x30, 0x09, 0x00, 0x00, 0x08, 0x09, 0x00, 0x00,
   0xc4, 0x08, 0x00, 0x00, 0x9c, 0x08, 0x00, 0x00, 0x68, 0x08, 0x00, 0x00,
   0x40, 0x08, 0x00, 0x00, 0xfc, 0x07, 0x00, 0x00, 0xd4, 0x07, 0x00, 0x00,
   0xa0, 0x07, 0x00, 0x00, 0x78, 0x07, 0x00, 0x00, 0x34, 0x07, 0x00, 0x00,
   0x0c, 0x07, 0x00, 0x00, 0xd8, 0x06, 0x00, 0x00, 0xb0, 0x06, 0x00, 0x00,
   0x6c, 0x06, 0x00, 0x00, 0x44, 0x06, 0x00, 0x00, 0x10, 0x06, 0x00, 0x00,
   0xe8, 0x05, 0x00, 0x00, 0xa4, 0x05, 0x00, 0x00, 0x7c, 0x05, 0x00, 0x00,
   0x48, 0x05, 0x00, 0x00, 0x20, 0x05, 0x00, 0x00, 0xdc, 0x04, 0x00, 0x00,
   0xb4, 0x04, 0x00, 0x00, 0x80, 0x04, 0x00, 0x00, 0x58, 0x04, 0x00, 0x00,
   0x14, 0x04, 0x00, 0x00, 0xec, 0x03, 0x00, 0x00, 0xb8, 0x03, 0x00, 0x00,
   0x90, 0x03, 0x00, 0x00, 0x4c, 0x03, 0x00, 0x00, 0x24, 0x03, 0x00, 0x00,
   0xf0, 0x02, 0x00, 0x00, 0xc8, 0x02, 0x00, 0x00, 0x84, 0x02, 0x00, 0x00,
   0x5c, 0x02, 0x00, 0x00, 0x28, 0x02, 0x00, 0x00, 0x00, 0x02, 0x00, 0x00,
   0xbc, 0x01, 0x00, 0x00, 0x94, 0x01, 0x00, 0x00, 0x60, 0x01, 0x00, 0x00,
   0x38, 0x01, 0x00, 0x00, 0x00, 0x01, 0x00, 0x00, 0xcc, 0x00, 0x00, 0x00,
   0x94, 0x00, 0x00, 0x00, 0x60, 0x00, 0x00, 0x00, 0x28, 0x00, 0x00, 0x00,
   0x04, 0x00, 0x00, 0x00, 0x5e, 0xf0, 0xff, 0xff, 0x0c, 0x00, 0x00, 0x00,
   0x10, 0x00, 0x00, 0x00, 0x06, 0x00, 0x00, 0x00, 0x01, 0x00, 0x00, 0x00,
   0x8f, 0x00, 0x00, 0x00, 0x01, 0x00, 0x00, 0x00, 0x8e, 0x00, 0x00, 0x00,
   0xda, 0xf0, 0xff, 0xff, 0x14, 0x00, 0x00, 0x00, 0x00, 0x00, 0x00, 0x08,
   0x10, 0x00, 0x00, 0x00, 0x14, 0x00, 0x00, 0x00, 0x05, 0x00, 0x00, 0x00,
   0xd4, 0x94, 0xff, 0xff, 0x01, 0x00, 0x00, 0x00, 0x8e, 0x00, 0x00, 0x00,
   0x03, 0x00, 0x00, 0x00, 0x8d, 0x00, 0x00, 0x00, 0x0b, 0x00, 0x00, 0x00,
   0x0a, 0x00, 0x00, 0x00, 0x0e, 0xf1, 0xff, 0xff, 0x14, 0x00, 0x00, 0x00,
   0x00, 0x00, 0x00, 0x4b, 0x14, 0x00, 0x00, 0x00, 0x18, 0x00, 0x00, 0x00,
   0x04, 0x00, 0x00, 0x00, 0x6a, 0xf1, 0xff, 0xff, 0x0a, 0xd7, 0x23, 0x3c,
   0x01, 0x00, 0x00, 0x00, 0x8d, 0x00, 0x00, 0x00, 0x01, 0x00, 0x00, 0x00,
   0x8c, 0x00, 0x00, 0x00, 0x3e, 0xf1, 0xff, 0xff, 0x14, 0x00, 0x00, 0x00,
   0x00, 0x00, 0x00, 0x08, 0x10, 0x00, 0x00, 0x00, 0x14, 0x00, 0x00, 0x00,
   0x05, 0x00, 0x00, 0x00, 0x38, 0x95, 0xff, 0xff, 0x01, 0x00, 0x00, 0x00,
   0x8c, 0x00, 0x00, 0x00, 0x03, 0x00, 0x00, 0x00, 0x8b, 0x00, 0x00, 0x00,
   0x0d, 0x00, 0x00, 0x00, 0x0c, 0x00, 0x00, 0x00, 0x72, 0xf1, 0xff, 0xff,
   0x14, 0x00, 0x00, 0x00, 0x00, 0x00, 0x00, 0x4b, 0x14, 0x00, 0x00, 0x00,
   0x18, 0x00, 0x00, 0x00, 0x04, 0x00, 0x00, 0x00, 0xce, 0xf1, 0xff, 0xff,
   0x0a, 0xd7, 0x23, 0x3c, 0x01, 0x00, 0x00, 0x00, 0x8b, 0x00, 0x00, 0x00,
   0x01, 0x00, 0x00, 0x00, 0x8a, 0x00, 0x00, 0x00, 0xa2, 0xf1, 0xff, 0xff,
   0x14, 0x00, 0x00, 0x00, 0x00, 0x00, 0x00, 0x08, 0x10, 0x00, 0x00, 0x00,
   0x14, 0x00, 0x00, 0x00, 0x05, 0x00, 0x00, 0x00, 0x9c, 0x95, 0xff, 0xff,
   0x01, 0x00, 0x00, 0x00, 0x8a, 0x00, 0x00, 0x00, 0x03, 0x00, 0x00, 0x00,
   0x89, 0x00, 0x00, 0x00, 0x0f, 0x00, 0x00, 0x00, 0x0e, 0x00, 0x00, 0x00,
   0x7a, 0xf1, 0xff, 0xff, 0x0c, 0x00, 0x00, 0x00, 0x10, 0x00, 0x00, 0x00,
   0x01, 0x00, 0x00, 0x00, 0x01, 0x00, 0x00, 0x00, 0x89, 0x00, 0x00, 0x00,
   0x02, 0x00, 0x00, 0x00, 0x88, 0x00, 0x00, 0x00, 0x09, 0x00, 0x00, 0x00,
   0xfa, 0xf1, 0xff, 0xff, 0x14, 0x00, 0x00, 0x00, 0x00, 0x00, 0x00, 0x4b,
   0x14, 0x00, 0x00, 0x00, 0x18, 0x00, 0x00, 0x00, 0x04, 0x00, 0x00, 0x00,
   0x56, 0xf2, 0xff, 0xff, 0x0a, 0xd7, 0x23, 0x3c, 0x01, 0x00, 0x00, 0x00,
   0x88, 0x00, 0x00, 0x00, 0x01, 0x00, 0x00, 0x00, 0x87, 0x00, 0x00, 0x00,
   0xce, 0xf1, 0xff, 0xff, 0x0c, 0x00, 0x00, 0x00, 0x10, 0x00, 0x00, 0x00,
   0x01, 0x00, 0x00, 0x00, 0x01, 0x00, 0x00, 0x00, 0x87, 0x00, 0x00, 0x00,
   0x02, 0x00, 0x00, 0x00, 0x86, 0x00, 0x00, 0x00, 0x08, 0x00, 0x00, 0x00,
   0x4e, 0xf2, 0xff, 0xff, 0x14, 0x00, 0x00, 0x00, 0x00, 0x00, 0x00, 0x01,
   0x1c, 0x00, 0x00, 0x00, 0x20, 0x00, 0x00, 0x00, 0x02, 0x00, 0x00, 0x00,
   0x3e, 0xf2, 0xff, 0xff, 0x01, 0x00, 0x00, 0x00, 0x01, 0x00, 0x00, 0x00,
   0x00, 0x00, 0x00, 0x01, 0x01, 0x00, 0x00, 0x00, 0x86, 0x00, 0x00, 0x00,
   0x03, 0x00, 0x00, 0x00, 0x85, 0x00, 0x00, 0x00, 0x11, 0x00, 0x00, 0x00,
   0x10, 0x00, 0x00, 0x00, 0x32, 0xf2, 0xff, 0xff, 0x0c, 0x00, 0x00, 0x00,
   0x10, 0x00, 0x00, 0x00, 0x01, 0x00, 0x00, 0x00, 0x01, 0x00, 0x00, 0x00,
   0x85, 0x00, 0x00, 0x00, 0x02, 0x00, 0x00, 0x00, 0x84, 0x00, 0x00, 0x00,
   0x05, 0x00, 0x00, 0x00, 0xb2, 0xf2, 0xff, 0xff, 0x14, 0x00, 0x00, 0x00,
   0x00, 0x00, 0x00, 0x4b, 0x14, 0x00, 0x00, 0x00, 0x18, 0x00, 0x00, 0x00,
   0x04, 0x00, 0x00, 0x00, 0x0e, 0xf3, 0xff, 0xff, 0x0a, 0xd7, 0x23, 0x3c,
   0x01, 0x00, 0x00, 0x00, 0x84, 0x00, 0x00, 0x00, 0x01, 0x00, 0x00, 0x00,
